{
  "version": "1.0",
  "truncation": null,
  "padding": null,
  "added_tokens": [
    {
      "id": 0,
      "content": "[PAD]",
      "single_word": false,
      "lstrip": false,
      "rstrip": false,
      "normalized": false,
      "special": true
    },
    {
      "id": 1,
      "content": "[SOS]",
      "single_word": false,
      "lstrip": false,
      "rstrip": false,
      "normalized": false,
      "special": true
    },
    {
      "id": 2,
      "content": "[EOS]",
      "single_word": false,
      "lstrip": false,
      "rstrip": false,
      "normalized": false,
      "special": true
    },
    {
      "id": 3,
      "content": "[UNK]",
      "single_word": false,
      "lstrip": false,
      "rstrip": false,
      "normalized": false,
      "special": true
    }
  ],
  "normalizer": null,
  "pre_tokenizer": {
    "type": "Whitespace"
  },
  "post_processor": {
    "type": "TemplateProcessing",
    "single": [
      {
        "SpecialToken": {
          "id": "[SOS]",
          "type_id": 0
        }
      },
      {
        "Sequence": {
          "id": "A",
          "type_id": 0
        }
      },
      {
        "SpecialToken": {
          "id": "[EOS]",
          "type_id": 0
        }
      }
    ],
    "pair": [
      {
        "SpecialToken": {
          "id": "[SOS]",
          "type_id": 0
        }
      },
      {
        "Sequence": {
          "id": "A",
          "type_id": 0
        }
      },
      {
        "SpecialToken": {
          "id": "[EOS]",
          "type_id": 0
        }
      },
      {
        "SpecialToken": {
          "id": "[SOS]",
          "type_id": 0
        }
      },
      {
        "Sequence": {
          "id": "B",
          "type_id": 0
        }
      },
      {
        "SpecialToken": {
          "id": "[EOS]",
          "type_id": 0
        }
      }
    ],
    "special_tokens": {
      "[EOS]": {
        "id": "[EOS]",
        "ids": [
          2
        ],
        "tokens": [
          "[EOS]"
        ]
      },
      "[SOS]": {
        "id": "[SOS]",
        "ids": [
          1
        ],
        "tokens": [
          "[SOS]"
        ]
      }
    }
  },
  "decoder": null,
  "model": {
    "type": "BPE",
    "dropout": null,
    "unk_token": "[UNK]",
    "continuing_subword_prefix": null,
    "end_of_word_suffix": null,
    "fuse_unk": false,
    "byte_fallback": false,
    "ignore_merges": false,
    "vocab": {
      "[PAD]": 0,
      "[SOS]": 1,
      "[EOS]": 2,
      "[UNK]": 3,
      "!": 4,
      "'": 5,
      ".": 6,
      "0": 7,
      "1": 8,
      "2": 9,
      "3": 10,
      "4": 11,
      "5": 12,
      "6": 13,
      "7": 14,
      "9": 15,
      "?": 16,
      "a": 17,
      "b": 18,
      "c": 19,
      "d": 20,
      "e": 21,
      "f": 22,
      "g": 23,
      "h": 24,
      "i": 25,
      "j": 26,
      "k": 27,
      "l": 28,
      "m": 29,
      "n": 30,
      "o": 31,
      "p": 32,
      "q": 33,
      "r": 34,
      "s": 35,
      "t": 36,
      "u": 37,
      "v": 38,
      "w": 39,
      "x": 40,
      "y": 41,
      "z": 42,
      "ou": 43,
      "th": 44,
      "you": 45,
      "in": 46,
      "re": 47,
      "an": 48,
      "at": 49,
      "on": 50,
      "the": 51,
      "er": 52,
      "to": 53,
      "me": 54,
      "is": 55,
      "ll": 56,
      "no": 57,
      "he": 58,
      "ing": 59,
      "..": 60,
      "st": 61,
      "it": 62,
      "wh": 63,
      "or": 64,
      "en": 65,
      "se": 66,
      "we": 67,
      "ve": 68,
      "be": 69,
      "le": 70,
      "ar": 71,
      "as": 72,
      "ay": 73,
      "go": 74,
      "and": 75,
      "that": 76,
      "do": 77,
      "ed": 78,
      "of": 79,
      "id": 80,
      "what": 81,
      "so": 82,
      "al": 83,
      "es": 84,
      "ha": 85,
      "ig": 86,
      "ho": 87,
      "...": 88,
      "li": 89,
      "your": 90,
      "ke": 91,
      "wi": 92,
      "now": 93,
      "ht": 94,
      "out": 95,
      "are": 96,
      "ld": 97,
      "for": 98,
      "don": 99,
      "my": 100,
      "ut": 101,
      "ge": 102,
      "not": 103,
      "ch": 104,
      "ad": 105,
      "all": 106,
      "ro": 107,
      "ck": 108,
      "ver": 109,
      "ight": 110,
      "ne": 111,
      "know": 112,
      "one": 113,
      "un": 114,
      "with": 115,
      "co": 116,
      "have": 117,
      "can": 118,
      "ab": 119,
      "ion": 120,
      "lo": 121,
      "her": 122,
      "ust": 123,
      "ca": 124,
      "te": 125,
      "was": 126,
      "ok": 127,
      "ant": 128,
      "ce": 129,
      "thing": 130,
      "this": 131,
      "ould": 132,
      "if": 133,
      "ly": 134,
      "but": 135,
      "up": 136,
      "get": 137,
      "here": 138,
      "like": 139,
      "ir": 140,
      "some": 141,
      "just": 142,
      "how": 143,
      "ea": 144,
      "ri": 145,
      "ti": 146,
      "ther": 147,
      "want": 148,
      "us": 149,
      "who": 150,
      "she": 151,
      "right": 152,
      "im": 153,
      "did": 154,
      "po": 155,
      "de": 156,
      "ter": 157,
      "about": 158,
      "ct": 159,
      "mo": 160,
      "pe": 161,
      "say": 162,
      "ta": 163,
      "bo": 164,
      "ind": 165,
      "ie": 166,
      "thin": 167,
      "gu": 168,
      "way": 169,
      "ate": 170,
      "they": 171,
      "end": 172,
      "art": 173,
      "am": 174,
      "use": 175,
      "think": 176,
      "any": 177,
      "there": 178,
      "pro": 179,
      "tr": 180,
      "ma": 181,
      "yea": 182,
      "yeah": 183,
      "ack": 184,
      "tell": 185,
      "fe": 186,
      "sh": 187,
      "why": 188,
      "ent": 189,
      "ill": 190,
      "ur": 191,
      "got": 192,
      "na": 193,
      "ple": 194,
      "od": 195,
      "ure": 196,
      "men": 197,
      "ex": 198,
      "ss": 199,
      "him": 200,
      "oug": 201,
      "ally": 202,
      "then": 203,
      "look": 204,
      "fa": 205,
      "la": 206,
      "man": 207,
      "let": 208,
      "sa": 209,
      "wor": 210,
      "con": 211,
      "will": 212,
      "ap": 213,
      "tal": 214,
      "were": 215,
      "sp": 216,
      "ven": 217,
      "whe": 218,
      "would": 219,
      "ine": 220,
      "ever": 221,
      "never": 222,
      "cho": 223,
      "ive": 224,
      "ol": 225,
      "where": 226,
      "see": 227,
      "well": 228,
      "gir": 229,
      "ous": 230,
      "ide": 231,
      "guy": 232,
      "talk": 233,
      "girl": 234,
      "pre": 235,
      "per": 236,
      "ty": 237,
      "ation": 238,
      "something": 239,
      "when": 240,
      "back": 241,
      "fo": 242,
      "ry": 243,
      "wn": 244,
      "good": 245,
      "okay": 246,
      "ag": 247,
      "could": 248,
      "qu": 249,
      "red": 250,
      "dy": 251,
      "yes": 252,
      "lon": 253,
      "wo": 254,
      "does": 255,
      "cause": 256,
      "didn": 257,
      "ic": 258,
      "them": 259,
      "by": 260,
      "lf": 261,
      "mer": 262,
      "part": 263,
      "thoug": 264,
      "going": 265,
      "time": 266,
      "take": 267,
      "bi": 268,
      "other": 269,
      "oun": 270,
      "read": 271,
      "need": 272,
      "come": 273,
      "fri": 274,
      "his": 275,
      "ra": 276,
      "int": 277,
      "ist": 278,
      "self": 279,
      "ard": 280,
      "had": 281,
      "und": 282,
      "friend": 283,
      "fu": 284,
      "give": 285,
      "may": 286,
      "com": 287,
      "fi": 288,
      "min": 289,
      "vi": 290,
      "sed": 291,
      "because": 292,
      "rom": 293,
      "act": 294,
      "kill": 295,
      "oh": 296,
      "uch": 297,
      "really": 298,
      "ask": 299,
      "new": 300,
      "thought": 301,
      "from": 302,
      "gon": 303,
      "ren": 304,
      "ment": 305,
      "has": 306,
      "kid": 307,
      "mar": 308,
      "sure": 309,
      "ye": 310,
      "ess": 311,
      "oney": 312,
      "more": 313,
      "make": 314,
      "father": 315,
      "che": 316,
      "ick": 317,
      "put": 318,
      "than": 319,
      "mean": 320,
      "wee": 321,
      "god": 322,
      "bian": 323,
      "ready": 324,
      "gonna": 325,
      "gr": 326,
      "mb": 327,
      "ople": 328,
      "show": 329,
      "start": 330,
      "been": 331,
      "chie": 332,
      "people": 333,
      "urn": 334,
      "maybe": 335,
      "ep": 336,
      "even": 337,
      "ru": 338,
      "wa": 339,
      "won": 340,
      "ze": 341,
      "our": 342,
      "too": 343,
      "alright": 344,
      "ways": 345,
      "bianca": 346,
      "ci": 347,
      "die": 348,
      "el": 349,
      "jo": 350,
      "ser": 351,
      "ud": 352,
      "always": 353,
      "lie": 354,
      "camer": 355,
      "point": 356,
      "should": 357,
      "chief": 358,
      "age": 359,
      "mis": 360,
      "mind": 361,
      "son": 362,
      "sho": 363,
      "scho": 364,
      "ul": 365,
      "reat": 366,
      "stand": 367,
      "ity": 368,
      "off": 369,
      "ound": 370,
      "fire": 371,
      "school": 372,
      "bu": 373,
      "care": 374,
      "king": 375,
      "list": 376,
      "over": 377,
      "ron": 378,
      "sis": 379,
      "rest": 380,
      "only": 381,
      "ers": 382,
      "hey": 383,
      "doing": 384,
      "under": 385,
      "fuck": 386,
      "sister": 387,
      "af": 388,
      "bl": 389,
      "dis": 390,
      "day": 391,
      "date": 392,
      "il": 393,
      "tle": 394,
      "ree": 395,
      "whi": 396,
      "eak": 397,
      "boy": 398,
      "speak": 399,
      "fore": 400,
      "doesn": 401,
      "listen": 402,
      "ain": 403,
      "bad": 404,
      "est": 405,
      "ia": 406,
      "lp": 407,
      "mon": 408,
      "much": 409,
      "money": 410,
      "night": 411,
      "pp": 412,
      "pat": 413,
      "sit": 414,
      "two": 415,
      "help": 416,
      "ort": 417,
      "lea": 418,
      "down": 419,
      "someone": 420,
      "til": 421,
      "dec": 422,
      "pect": 423,
      "every": 424,
      "year": 425,
      "wait": 426,
      "dre": 427,
      "lit": 428,
      "must": 429,
      "pl": 430,
      "sc": 431,
      "wat": 432,
      "ating": 433,
      "ish": 434,
      "before": 435,
      "life": 436,
      "colon": 437,
      "ions": 438,
      "anything": 439,
      "understand": 440,
      "ac": 441,
      "br": 442,
      "call": 443,
      "ies": 444,
      "land": 445,
      "ug": 446,
      "ually": 447,
      "went": 448,
      "tor": 449,
      "bet": 450,
      "ass": 451,
      "eddie": 452,
      "until": 453,
      "uss": 454,
      "said": 455,
      "cl": 456,
      "cze": 457,
      "find": 458,
      "kat": 459,
      "run": 460,
      "sw": 461,
      "side": 462,
      "turn": 463,
      "med": 464,
      "nor": 465,
      "head": 466,
      "ence": 467,
      "belie": 468,
      "ough": 469,
      "work": 470,
      "week": 471,
      "believe": 472,
      "cr": 473,
      "car": 474,
      "dad": 475,
      "ild": 476,
      "op": 477,
      "pla": 478,
      "sto": 479,
      "ton": 480,
      "yourself": 481,
      "able": 482,
      "case": 483,
      "try": 484,
      "shit": 485,
      "guys": 486,
      "party": 487,
      "blind": 488,
      "little": 489,
      "away": 490,
      "big": 491,
      "dif": 492,
      "ey": 493,
      "ning": 494,
      "own": 495,
      "tri": 496,
      "vie": 497,
      "wan": 498,
      "their": 499,
      "told": 500,
      "nothing": 501,
      "heard": 502,
      "stu": 503,
      "still": 504,
      "already": 505,
      "forget": 506,
      "ute": 507,
      "posed": 508,
      "says": 509,
      "feren": 510,
      "law": 511,
      "long": 512,
      "joey": 513,
      "better": 514,
      "daddy": 515,
      "wanna": 516,
      "ak": 517,
      "ble": 518,
      "cti": 519,
      "ef": 520,
      "ff": 521,
      "fine": 522,
      "great": 523,
      "kes": 524,
      "pr": 525,
      "pt": 526,
      "uh": 527,
      "inte": 528,
      "stay": 529,
      "less": 530,
      "low": 531,
      "wanted": 532,
      "mother": 533,
      "guess": 534,
      "used": 535,
      "world": 536,
      "pret": 537,
      "actually": 538,
      "mber": 539,
      "else": 540,
      "dress": 541,
      "cou": 542,
      "cent": 543,
      "dr": 544,
      "hi": 545,
      "ious": 546,
      "mat": 547,
      "pa": 548,
      "pay": 549,
      "rid": 550,
      "sin": 551,
      "sup": 552,
      "ving": 553,
      "these": 554,
      "iss": 555,
      "orse": 556,
      "set": 557,
      "aren": 558,
      "body": 559,
      "tru": 560,
      "girls": 561,
      "shower": 562,
      "shot": 563,
      "while": 564,
      "watch": 565,
      "czech": 566,
      "ba": 567,
      "bit": 568,
      "cer": 569,
      "coun": 570,
      "em": 571,
      "fan": 572,
      "found": 573,
      "ga": 574,
      "gone": 575,
      "iz": 576,
      "ice": 577,
      "lat": 578,
      "might": 579,
      "many": 580,
      "pu": 581,
      "sha": 582,
      "ting": 583,
      "reme": 584,
      "ang": 585,
      "another": 586,
      "answ": 587,
      "ise": 588,
      "hear": 589,
      "stup": 590,
      "ite": 591,
      "ened": 592,
      "enough": 593,
      "happ": 594,
      "cop": 595,
      "came": 596,
      "book": 597,
      "promis": 598,
      "plete": 599,
      "appoint": 600,
      "press": 601,
      "complete": 602,
      "vice": 603,
      "cameron": 604,
      "stuff": 605,
      "matter": 606,
      "answer": 607,
      "stupid": 608,
      "promise": 609,
      "bro": 610,
      "cri": 611,
      "der": 612,
      "ft": 613,
      "fam": 614,
      "gl": 615,
      "hate": 616,
      "ict": 617,
      "kind": 618,
      "ms": 619,
      "mad": 620,
      "mic": 621,
      "ose": 622,
      "old": 623,
      "sle": 624,
      "such": 625,
      "swee": 626,
      "tu": 627,
      "ten": 628,
      "thir": 629,
      "ance": 630,
      "ones": 631,
      "isn": 632,
      "ene": 633,
      "left": 634,
      "keep": 635,
      "veron": 636,
      "knows": 637,
      "que": 638,
      "killer": 639,
      "serious": 640,
      "build": 641,
      "after": 642,
      "boyfriend": 643,
      "bring": 644,
      "tonight": 645,
      "differen": 646,
      "ctive": 647,
      "pretty": 648,
      "supposed": 649,
      "completely": 650,
      "?!": 651,
      "bab": 652,
      "blo": 653,
      "burn": 654,
      "cig": 655,
      "ding": 656,
      "dorse": 657,
      "et": 658,
      "ev": 659,
      "knew": 660,
      "mm": 661,
      "sm": 662,
      "san": 663,
      "sor": 664,
      "sus": 665,
      "send": 666,
      "um": 667,
      "vis": 668,
      "xt": 669,
      "thous": 670,
      "into": 671,
      "res": 672,
      "hell": 673,
      "state": 674,
      "ens": 675,
      "sex": 676,
      "ary": 677,
      "alone": 678,
      "haven": 679,
      "next": 680,
      "rick": 681,
      "whole": 682,
      "movie": 683,
      "tain": 684,
      "prom": 685,
      "looking": 686,
      "talking": 687,
      "again": 688,
      "quest": 689,
      "decis": 690,
      "story": 691,
      "interest": 692,
      "sleep": 693,
      "thirty": 694,
      "dorsey": 695,
      "sorry": 696,
      "thousand": 697,
      "ago": 698,
      "bar": 699,
      "bus": 700,
      "ced": 701,
      "cuss": 702,
      "da": 703,
      "dating": 704,
      "eas": 705,
      "fre": 706,
      "fir": 707,
      "gun": 708,
      "hal": 709,
      "hig": 710,
      "honey": 711,
      "iam": 712,
      "je": 713,
      "jud": 714,
      "mor": 715,
      "mill": 716,
      "om": 717,
      "pin": 718,
      "rat": 719,
      "vor": 720,
      "ward": 721,
      "yer": 722,
      "real": 723,
      "took": 724,
      "llar": 725,
      "ste": 726,
      "seen": 727,
      "west": 728,
      "ved": 729,
      "leg": 730,
      "les": 731,
      "arr": 732,
      "dollar": 733,
      "home": 734,
      "gey": 735,
      "love": 736,
      "tective": 737,
      "cept": 738,
      "things": 739,
      "imag": 740,
      "deal": 741,
      "detective": 742,
      "bogey": 743,
      "proble": 744,
      "trust": 745,
      "main": 746,
      "expect": 747,
      "last": 748,
      "word": 749,
      "william": 750,
      "person": 751,
      "fool": 752,
      "raid": 753,
      "friends": 754,
      "coming": 755,
      "minute": 756,
      "thank": 757,
      "service": 758,
      "camera": 759,
      "rong": 760,
      "fucking": 761,
      "afraid": 762,
      "patrick": 763,
      "play": 764,
      "ught": 765,
      "weeks": 766,
      "crap": 767,
      "lawyer": 768,
      "since": 769,
      "verona": 770,
      "half": 771,
      "million": 772,
      "imagine": 773,
      "ah": 774,
      "ase": 775,
      "awhile": 776,
      "cu": 777,
      "cy": 778,
      "cha": 779,
      "cut": 780,
      "clo": 781,
      "ctor": 782,
      "di": 783,
      "eyes": 784,
      "emin": 785,
      "fun": 786,
      "gig": 787,
      "hat": 788,
      "har": 789,
      "hur": 790,
      "hund": 791,
      "ica": 792,
      "jack": 793,
      "kin": 794,
      "ken": 795,
      "mal": 796,
      "mus": 797,
      "oper": 798,
      "ps": 799,
      "por": 800,
      "port": 801,
      "sent": 802,
      "tro": 803,
      "uck": 804,
      "vide": 805,
      "win": 806,
      "those": 807,
      "incl": 808,
      "ange": 809,
      "ern": 810,
      "meet": 811,
      "ison": 812,
      "isto": 813,
      "issed": 814,
      "island": 815,
      "strat": 816,
      "ors": 817,
      "wear": 818,
      "leon": 819,
      "sol": 820,
      "soon": 821,
      "alon": 822,
      "homic": 823,
      "...?": 824,
      "live": 825,
      "fort": 826,
      "done": 827,
      "ney": 828,
      "lost": 829,
      "wasn": 830,
      "gets": 831,
      "east": 832,
      "tic": 833,
      "tial": 834,
      "wants": 835,
      "rights": 836,
      "posit": 837,
      "dead": 838,
      "saying": 839,
      "anyone": 840,
      "maj": 841,
      "making": 842,
      "please": 843,
      "ured": 844,
      "exc": 845,
      "exact": 846,
      "saw": 847,
      "wouldn": 848,
      "times": 849,
      "killed": 850,
      "disappoint": 851,
      "which": 852,
      "listening": 853,
      "patron": 854,
      "leave": 855,
      "everyone": 856,
      "years": 857,
      "plan": 858,
      "normal": 859,
      "prof": 860,
      "couple": 861,
      "remember": 862,
      "sweet": 863,
      "different": 864,
      "decisions": 865,
      "high": 866,
      "problem": 867,
      "eminence": 868,
      "hurt": 869,
      "hundred": 870,
      "video": 871,
      "homicide": 872,
      "exactly": 873,
      "bre": 874,
      "cat": 875,
      "cor": 876,
      "eu": 877,
      "fle": 878,
      "far": 879,
      "fight": 880,
      "gle": 881,
      "ian": 882,
      "ily": 883,
      "ize": 884,
      "jes": 885,
      "kick": 886,
      "lm": 887,
      "lun": 888,
      "lud": 889,
      "mine": 890,
      "nu": 891,
      "ness": 892,
      "ow": 893,
      "pri": 894,
      "pick": 895,
      "puss": 896,
      "piss": 897,
      "sid": 898,
      "slo": 899,
      "tt": 900,
      "vak": 901,
      "wig": 902,
      "wrong": 903,
      "threat": 904,
      "inno": 905,
      "thes": 906,
      "lling": 907,
      "hed": 908,
      "seven": 909,
      "wed": 910,
      "wel": 911,
      "vered": 912,
      "betr": 913,
      "arly": 914,
      "around": 915,
      "asure": 916,
      "ayed": 917,
      "gold": 918,
      "hot": 919,
      "hold": 920,
      "lian": 921,
      "lice": 922,
      "ared": 923,
      "ford": 924,
      "gest": 925,
      "chr": 926,
      "chat": 927,
      "ada": 928,
      "adm": 929,
      "address": 930,
      "rod": 931,
      "covered": 932,
      "ional": 933,
      "cap": 934,
      "sometimes": 935,
      "pose": 936,
      "police": 937,
      "both": 938,
      "gue": 939,
      "gues": 940,
      "trad": 941,
      "fect": 942,
      "himself": 943,
      "favor": 944,
      "cond": 945,
      "girlfriend": 946,
      "ations": 947,
      "full": 948,
      "vilian": 949,
      "kids": 950,
      "kidding": 951,
      "yet": 952,
      "civilian": 953,
      "miss": 954,
      "buy": 955,
      "career": 956,
      "discuss": 957,
      "pped": 958,
      "scre": 959,
      "opin": 960,
      "true": 961,
      "gave": 962,
      "izing": 963,
      "glad": 964,
      "building": 965,
      "cigare": 966,
      "small": 967,
      "suspect": 968,
      "question": 969,
      "busy": 970,
      "first": 971,
      "judg": 972,
      "dollars": 973,
      "giggle": 974,
      "jackson": 975,
      "stratford": 976,
      "excuse": 977,
      "jesus": 978,
      "ludwig": 979,
      "number": 980,
      "slovak": 981,
      "threatened": 982,
      "innocent": 983,
      "betrayed": 984,
      "gigglepuss": 985,
      "slovakia": 986,
      "!!": 987,
      "bor": 988,
      "bli": 989,
      "bla": 990,
      "cre": 991,
      "cle": 992,
      "ces": 993,
      "des": 994,
      "dam": 995,
      "fin": 996,
      "five": 997,
      "fren": 998,
      "free": 999,
      "gi": 1000,
      "gy": 1001,
      "gre": 1002,
      "hone": 1003,
      "huh": 1004,
      "ix": 1005,
      "ili": 1006,
      "ither": 1007,
      "ja": 1008,
      "ked": 1009,
      "mig": 1010,
      "ner": 1011,
      "ned": 1012,
      "oleg": 1013,
      "par": 1014,
      "pig": 1015,
      "pun": 1016,
      "pass": 1017,
      "paren": 1018,
      "pict": 1019,
      "pissed": 1020,
      "phone": 1021,
      "ration": 1022,
      "sar": 1023,
      "sur": 1024,
      "six": 1025,
      "tent": 1026,
      "wr": 1027,
      "wise": 1028,
      "ya": 1029,
      "three": 1030,
      "return": 1031,
      "ates": 1032,
      "atur": 1033,
      "ons": 1034,
      "ery": 1035,
      "toge": 1036,
      "today": 1037,
      "stin": 1038,
      "its": 1039,
      "ening": 1040,
      "ency": 1041,
      "sess": 1042,
      "ves": 1043,
      "bed": 1044,
      "being": 1045,
      "arrest": 1046,
      "ash": 1047,
      "assho": 1048,
      "goes": 1049,
      "door": 1050,
      "whatever": 1051,
      "hair": 1052,
      "hope": 1053,
      "...!": 1054,
      "limb": 1055,
      "yours": 1056,
      "forgive": 1057,
      "myself": 1058,
      "cher": 1059,
      "change": 1060,
      "rope": 1061,
      "cks": 1062,
      "very": 1063,
      "unate": 1064,
      "unless": 1065,
      "unfort": 1066,
      "cover": 1067,
      "cool": 1068,
      "cannot": 1069,
      "lot": 1070,
      "getting": 1071,
      "ried": 1072,
      "rief": 1073,
      "therap": 1074,
      "immig": 1075,
      "pos": 1076,
      "most": 1077,
      "taking": 1078,
      "bobad": 1079,
      "anymore": 1080,
      "probab": 1081,
      "short": 1082,
      "illa": 1083,
      "name": 1084,
      "pleasure": 1085,
      "ody": 1086,
      "exp": 1087,
      "exper": 1088,
      "same": 1089,
      "worry": 1090,
      "conside": 1091,
      "weren": 1092,
      "spain": 1093,
      "choice": 1094,
      "chopped": 1095,
      "women": 1096,
      "woman": 1097,
      "icul": 1098,
      "partner": 1099,
      "though": 1100,
      "raw": 1101,
      "film": 1102,
      "asking": 1103,
      "rence": 1104,
      "ments": 1105,
      "marsha": 1106,
      "essional": 1107,
      "chez": 1108,
      "means": 1109,
      "grand": 1110,
      "rug": 1111,
      "job": 1112,
      "ulations": 1113,
      "fuckin": 1114,
      "black": 1115,
      "days": 1116,
      "esty": 1117,
      "scene": 1118,
      "water": 1119,
      "running": 1120,
      "view": 1121,
      "lawrence": 1122,
      "mothers": 1123,
      "paid": 1124,
      "emil": 1125,
      "publi": 1126,
      "happened": 1127,
      "crime": 1128,
      "famous": 1129,
      "made": 1130,
      "seriously": 1131,
      "sanchez": 1132,
      "interested": 1133,
      "easy": 1134,
      "fresh": 1135,
      "clothes": 1136,
      "eastern": 1137,
      "position": 1138,
      "majesty": 1139,
      "disappointed": 1140,
      "patronizing": 1141,
      "professional": 1142,
      "videocamera": 1143,
      "europe": 1144,
      "ttes": 1145,
      "welcome": 1146,
      "cigarettes": 1147,
      "parent": 1148,
      "picture": 1149,
      "sarah": 1150,
      "together": 1151,
      "asshole": 1152,
      "unfortunate": 1153,
      "therapy": 1154,
      "immigration": 1155,
      "bobadilla": 1156,
      "probably": 1157,
      "experi": 1158,
      "considered": 1159,
      "marshall": 1160,
      "public": 1161,
      "ahead": 1162,
      "bal": 1163,
      "brief": 1164,
      "cen": 1165,
      "cus": 1166,
      "cred": 1167,
      "den": 1168,
      "dang": 1169,
      "draw": 1170,
      "drug": 1171,
      "ell": 1172,
      "emb": 1173,
      "eating": 1174,
      "fron": 1175,
      "hu": 1176,
      "hon": 1177,
      "hand": 1178,
      "hard": 1179,
      "ier": 1180,
      "ique": 1181,
      "ks": 1182,
      "kiss": 1183,
      "light": 1184,
      "line": 1185,
      "mand": 1186,
      "mid": 1187,
      "nice": 1188,
      "ob": 1189,
      "oy": 1190,
      "oce": 1191,
      "pho": 1192,
      "pant": 1193,
      "pur": 1194,
      "sk": 1195,
      "spe": 1196,
      "sug": 1197,
      "satur": 1198,
      "tou": 1199,
      "tin": 1200,
      "tre": 1201,
      "ted": 1202,
      "tall": 1203,
      "tab": 1204,
      "ture": 1205,
      "ub": 1206,
      "uation": 1207,
      "vic": 1208,
      "zon": 1209,
      "oup": 1210,
      "thmus": 1211,
      "ina": 1212,
      "inter": 1213,
      "inning": 1214,
      "reas": 1215,
      "rect": 1216,
      "relat": 1217,
      "repor": 1218,
      "ated": 1219,
      "tody": 1220,
      "tomor": 1221,
      "isthmus": 1222,
      "llow": 1223,
      "stit": 1224,
      "station": 1225,
      "stree": 1226,
      "ition": 1227,
      "bea": 1228,
      "best": 1229,
      "lear": 1230,
      "ark": 1231,
      "asia": 1232,
      "dog": 1233,
      "doctor": 1234,
      "ided": 1235,
      "idence": 1236,
      "sopho": 1237,
      "also": 1238,
      "esc": 1239,
      "esdr": 1240,
      "having": 1241,
      "lied": 1242,
      "likes": 1243,
      "ket": 1244,
      "form": 1245,
      "forgot": 1246,
      "forward": 1247,
      "alls": 1248,
      "row": 1249,
      "unwelcome": 1250,
      "without": 1251,
      "coat": 1252,
      "tem": 1253,
      "butcher": 1254,
      "somebody": 1255,
      "whore": 1256,
      "image": 1257,
      "pop": 1258,
      "poten": 1259,
      "taken": 1260,
      "indies": 1261,
      "artment": 1262,
      "amer": 1263,
      "prove": 1264,
      "tra": 1265,
      "few": 1266,
      "feel": 1267,
      "shi": 1268,
      "nah": 1269,
      "express": 1270,
      "except": 1271,
      "face": 1272,
      "save": 1273,
      "contro": 1274,
      "contrad": 1275,
      "aph": 1276,
      "apartment": 1277,
      "choslovakia": 1278,
      "seem": 1279,
      "seems": 1280,
      "preci": 1281,
      "percent": 1282,
      "type": 1283,
      "follow": 1284,
      "agree": 1285,
      "quite": 1286,
      "parts": 1287,
      "otherwise": 1288,
      "raz": 1289,
      "intend": 1290,
      "ful": 1291,
      "marche": 1292,
      "market": 1293,
      "check": 1294,
      "putrid": 1295,
      "group": 1296,
      "starts": 1297,
      "cial": 1298,
      "cameras": 1299,
      "shoulda": 1300,
      "situation": 1301,
      "least": 1302,
      "leagues": 1303,
      "decide": 1304,
      "decided": 1305,
      "everything": 1306,
      "waited": 1307,
      "ishing": 1308,
      "accept": 1309,
      "torture": 1310,
      "czechoslovakia": 1311,
      "swing": 1312,
      "place": 1313,
      "blindness": 1314,
      "diff": 1315,
      "tribe": 1316,
      "ference": 1317,
      "longer": 1318,
      "effect": 1319,
      "prison": 1320,
      "intestin": 1321,
      "lowen": 1322,
      "coupla": 1323,
      "ridicul": 1324,
      "truth": 1325,
      "certain": 1326,
      "country": 1327,
      "later": 1328,
      "happens": 1329,
      "brother": 1330,
      "icted": 1331,
      "queen": 1332,
      "burning": 1333,
      "evidence": 1334,
      "visit": 1335,
      "vision": 1336,
      "daught": 1337,
      "pinzon": 1338,
      "arrass": 1339,
      "mainland": 1340,
      "words": 1341,
      "includ": 1342,
      "islands": 1343,
      "lunch": 1344,
      "admir": 1345,
      "favorite": 1346,
      "screwed": 1347,
      "opinion": 1348,
      "boring": 1349,
      "blamed": 1350,
      "french": 1351,
      "jail": 1352,
      "punishing": 1353,
      "tention": 1354,
      "custody": 1355,
      "danger": 1356,
      "embarrass": 1357,
      "front": 1358,
      "ocean": 1359,
      "panties": 1360,
      "suggest": 1361,
      "saturday": 1362,
      "interview": 1363,
      "related": 1364,
      "reporter": 1365,
      "tomorrow": 1366,
      "street": 1367,
      "sophomore": 1368,
      "esdras": 1369,
      "potential": 1370,
      "control": 1371,
      "contradicted": 1372,
      "marchena": 1373,
      "ridiculous": 1374,
      "'.": 1375,
      ".?": 1376,
      "3r": 1377,
      "50": 1378,
      "63r": 1379,
      "750": 1380,
      "??": 1381,
      "ath": 1382,
      "ach": 1383,
      "ban": 1384,
      "bon": 1385,
      "band": 1386,
      "bby": 1387,
      "bra": 1388,
      "blow": 1389,
      "bbed": 1390,
      "balls": 1391,
      "cal": 1392,
      "cro": 1393,
      "cry": 1394,
      "cru": 1395,
      "creat": 1396,
      "cash": 1397,
      "culations": 1398,
      "dut": 1399,
      "dry": 1400,
      "dil": 1401,
      "dance": 1402,
      "dates": 1403,
      "daph": 1404,
      "eight": 1405,
      "fig": 1406,
      "fend": 1407,
      "flat": 1408,
      "gg": 1409,
      "ger": 1410,
      "gay": 1411,
      "gain": 1412,
      "ginning": 1413,
      "hit": 1414,
      "horse": 1415,
      "jour": 1416,
      "ka": 1417,
      "kor": 1418,
      "lu": 1419,
      "ler": 1420,
      "mut": 1421,
      "non": 1422,
      "nity": 1423,
      "olo": 1424,
      "pal": 1425,
      "pher": 1426,
      "pie": 1427,
      "pra": 1428,
      "ris": 1429,
      "ror": 1430,
      "russ": 1431,
      "swe": 1432,
      "sig": 1433,
      "sir": 1434,
      "sation": 1435,
      "sick": 1436,
      "spect": 1437,
      "swear": 1438,
      "tv": 1439,
      "tit": 1440,
      "twent": 1441,
      "tough": 1442,
      "ua": 1443,
      "ue": 1444,
      "vy": 1445,
      "vod": 1446,
      "vag": 1447,
      "vity": 1448,
      "vom": 1449,
      "ws": 1450,
      "wish": 1451,
      "warr": 1452,
      "outh": 1453,
      "inv": 1454,
      "ining": 1455,
      "ination": 1456,
      "inside": 1457,
      "inform": 1458,
      "incoat": 1459,
      "rely": 1460,
      "retri": 1461,
      "report": 1462,
      "aned": 1463,
      "anada": 1464,
      "ator": 1465,
      "attor": 1466,
      "attem": 1467,
      "total": 1468,
      "met": 1469,
      "lly": 1470,
      "llency": 1471,
      "hea": 1472,
      "stab": 1473,
      "stri": 1474,
      "sea": 1475,
      "senor": 1476,
      "second": 1477,
      "beat": 1478,
      "beer": 1479,
      "bered": 1480,
      "become": 1481,
      "beginning": 1482,
      "belly": 1483,
      "levision": 1484,
      "argue": 1485,
      "arina": 1486,
      "goin": 1487,
      "goti": 1488,
      "docu": 1489,
      "edy": 1490,
      "ids": 1491,
      "idea": 1492,
      "liver": 1493,
      "outta": 1494,
      "forty": 1495,
      "myst": 1496,
      "utif": 1497,
      "notic": 1498,
      "chick": 1499,
      "child": 1500,
      "chance": 1501,
      "roof": 1502,
      "versation": 1503,
      "neither": 1504,
      "negoti": 1505,
      "known": 1506,
      "unk": 1507,
      "unique": 1508,
      "abo": 1509,
      "abused": 1510,
      "absol": 1511,
      "lore": 1512,
      "loss": 1513,
      "loids": 1514,
      "hero": 1515,
      "teen": 1516,
      "television": 1517,
      "cellency": 1518,
      "upon": 1519,
      "upset": 1520,
      "somethin": 1521,
      "usually": 1522,
      "dez": 1523,
      "ters": 1524,
      "terror": 1525,
      "cted": 1526,
      "mom": 1527,
      "moti": 1528,
      "movi": 1529,
      "moody": 1530,
      "peare": 1531,
      "tact": 1532,
      "takes": 1533,
      "bobby": 1534,
      "ama": 1535,
      "ambit": 1536,
      "useful": 1537,
      "progre": 1538,
      "prostit": 1539,
      "makes": 1540,
      "acked": 1541,
      "tellin": 1542,
      "telling": 1543,
      "fety": 1544,
      "ents": 1545,
      "mendez": 1546,
      "excellency": 1547,
      "ought": 1548,
      "fair": 1549,
      "sail": 1550,
      "savag": 1551,
      "safety": 1552,
      "conference": 1553,
      "conversation": 1554,
      "contact": 1555,
      "appreci": 1556,
      "sper": 1557,
      "spit": 1558,
      "spend": 1559,
      "whether": 1560,
      "choic": 1561,
      "food": 1562,
      "quad": 1563,
      "quick": 1564,
      "icine": 1565,
      "reading": 1566,
      "needs": 1567,
      "raincoat": 1568,
      "hadn": 1569,
      "gives": 1570,
      "comp": 1571,
      "compl": 1572,
      "minal": 1573,
      "killing": 1574,
      "asked": 1575,
      "news": 1576,
      "render": 1577,
      "surely": 1578,
      "ched": 1579,
      "ches": 1580,
      "grin": 1581,
      "grab": 1582,
      "granada": 1583,
      "mbers": 1584,
      "ruth": 1585,
      "waste": 1586,
      "wonder": 1587,
      "ours": 1588,
      "elbo": 1589,
      "missed": 1590,
      "shoes": 1591,
      "ult": 1592,
      "ular": 1593,
      "standin": 1594,
      "bucks": 1595,
      "fucked": 1596,
      "month": 1597,
      "leaving": 1598,
      "yearbook": 1599,
      "understands": 1600,
      "accor": 1601,
      "accompl": 1602,
      "club": 1603,
      "katarina": 1604,
      "turning": 1605,
      "medicine": 1606,
      "believed": 1607,
      "carry": 1608,
      "open": 1609,
      "stop": 1610,
      "tried": 1611,
      "kespeare": 1612,
      "dresser": 1613,
      "past": 1614,
      "pair": 1615,
      "watching": 1616,
      "based": 1617,
      "bitch": 1618,
      "shakespeare": 1619,
      "angle": 1620,
      "appointment": 1621,
      "criminal": 1622,
      "family": 1623,
      "madison": 1624,
      "micro": 1625,
      "difference": 1626,
      "blood": 1627,
      "cigar": 1628,
      "mming": 1629,
      "smok": 1630,
      "statement": 1631,
      "ensive": 1632,
      "against": 1633,
      "barre": 1634,
      "bargain": 1635,
      "easier": 1636,
      "freak": 1637,
      "stein": 1638,
      "playing": 1639,
      "hated": 1640,
      "harry": 1641,
      "porn": 1642,
      "trooper": 1643,
      "istopher": 1644,
      "wearing": 1645,
      "alonso": 1646,
      "break": 1647,
      "catch": 1648,
      "correct": 1649,
      "flemming": 1650,
      "holding": 1651,
      "christ": 1652,
      "christopher": 1653,
      "capable": 1654,
      "captain": 1655,
      "condition": 1656,
      "judgment": 1657,
      "create": 1658,
      "cleaned": 1659,
      "damn": 1660,
      "giving": 1661,
      "passion": 1662,
      "surrender": 1663,
      "sessions": 1664,
      "expensive": 1665,
      "freshman": 1666,
      "parents": 1667,
      "experien": 1668,
      "honors": 1669,
      "purpose": 1670,
      "skunk": 1671,
      "touch": 1672,
      "tabloids": 1673,
      "beautif": 1674,
      "learn": 1675,
      "escort": 1676,
      "popular": 1677,
      "ships": 1678,
      "lowenstein": 1679,
      "brothers": 1680,
      "daughters": 1681,
      "admiral": 1682,
      "63rd": 1683,
      "calculations": 1684,
      "cross": 1685,
      "created": 1686,
      "duty": 1687,
      "daphne": 1688,
      "figured": 1689,
      "journey": 1690,
      "russian": 1691,
      "sweating": 1692,
      "twenty": 1693,
      "vodka": 1694,
      "vomit": 1695,
      "warrant": 1696,
      "information": 1697,
      "attorney": 1698,
      "attempt": 1699,
      "noticed": 1700,
      "movies": 1701,
      "progress": 1702,
      "prostitute": 1703,
      "savagery": 1704,
      "appreciate": 1705,
      "choices": 1706,
      "raincoats": 1707,
      "according": 1708,
      "accomplish": 1709,
      "beautiful": 1710,
      "!'": 1711,
      "!?": 1712,
      "00": 1713,
      "10": 1714,
      "210": 1715,
      "9th": 1716,
      "?'": 1717,
      "amed": 1718,
      "ben": 1719,
      "bun": 1720,
      "bly": 1721,
      "bir": 1722,
      "bend": 1723,
      "bent": 1724,
      "bag": 1725,
      "bred": 1726,
      "blon": 1727,
      "bones": 1728,
      "cc": 1729,
      "cof": 1730,
      "cli": 1731,
      "cous": 1732,
      "cour": 1733,
      "cused": 1734,
      "cise": 1735,
      "climb": 1736,
      "craz": 1737,
      "dle": 1738,
      "dies": 1739,
      "drun": 1740,
      "duck": 1741,
      "dark": 1742,
      "een": 1743,
      "ele": 1744,
      "ear": 1745,
      "eter": 1746,
      "emo": 1747,
      "emer": 1748,
      "etry": 1749,
      "eem": 1750,
      "early": 1751,
      "either": 1752,
      "fid": 1753,
      "fli": 1754,
      "fall": 1755,
      "fif": 1756,
      "fright": 1757,
      "fol": 1758,
      "fru": 1759,
      "four": 1760,
      "frid": 1761,
      "fern": 1762,
      "flu": 1763,
      "ging": 1764,
      "gim": 1765,
      "gent": 1766,
      "gag": 1767,
      "gene": 1768,
      "gary": 1769,
      "gency": 1770,
      "hy": 1771,
      "hou": 1772,
      "hid": 1773,
      "hun": 1774,
      "hide": 1775,
      "hang": 1776,
      "hmm": 1777,
      "hum": 1778,
      "ith": 1779,
      "ial": 1780,
      "ican": 1781,
      "iate": 1782,
      "ila": 1783,
      "ired": 1784,
      "iable": 1785,
      "ires": 1786,
      "ivity": 1787,
      "ibly": 1788,
      "jor": 1789,
      "jones": 1790,
      "jured": 1791,
      "jared": 1792,
      "km": 1793,
      "kit": 1794,
      "kne": 1795,
      "kers": 1796,
      "kissed": 1797,
      "ls": 1798,
      "lan": 1799,
      "lid": 1800,
      "late": 1801,
      "lack": 1802,
      "lity": 1803,
      "lish": 1804,
      "lens": 1805,
      "luck": 1806,
      "mp": 1807,
      "mme": 1808,
      "mug": 1809,
      "mild": 1810,
      "ny": 1811,
      "nat": 1812,
      "nay": 1813,
      "num": 1814,
      "ost": 1815,
      "opp": 1816,
      "oily": 1817,
      "owed": 1818,
      "occ": 1819,
      "pan": 1820,
      "pon": 1821,
      "pto": 1822,
      "ped": 1823,
      "pes": 1824,
      "pad": 1825,
      "ply": 1826,
      "pir": 1827,
      "pend": 1828,
      "pure": 1829,
      "pine": 1830,
      "pty": 1831,
      "page": 1832,
      "pron": 1833,
      "ring": 1834,
      "rit": 1835,
      "rand": 1836,
      "rout": 1837,
      "rare": 1838,
      "rant": 1839,
      "rus": 1840,
      "ride": 1841,
      "rough": 1842,
      "sy": 1843,
      "sme": 1844,
      "sight": 1845,
      "sun": 1846,
      "sco": 1847,
      "scan": 1848,
      "sim": 1849,
      "smo": 1850,
      "sma": 1851,
      "swo": 1852,
      "skid": 1853,
      "sud": 1854,
      "sound": 1855,
      "slow": 1856,
      "sum": 1857,
      "suck": 1858,
      "salon": 1859,
      "slight": 1860,
      "south": 1861,
      "tw": 1862,
      "tch": 1863,
      "tion": 1864,
      "tend": 1865,
      "tree": 1866,
      "ual": 1867,
      "uce": 1868,
      "vin": 1869,
      "vant": 1870,
      "voy": 1871,
      "wre": 1872,
      "wit": 1873,
      "war": 1874,
      "wal": 1875,
      "wur": 1876,
      "wide": 1877,
      "wrest": 1878,
      "wers": 1879,
      "wboy": 1880,
      "xim": 1881,
      "xica": 1882,
      "ys": 1883,
      "ycho": 1884,
      "zy": 1885,
      "zz": 1886,
      "zing": 1887,
      "zine": 1888,
      "thy": 1889,
      "thro": 1890,
      "thri": 1891,
      "thol": 1892,
      "through": 1893,
      "ins": 1894,
      "iny": 1895,
      "inst": 1896,
      "inve": 1897,
      "inti": 1898,
      "insan": 1899,
      "incred": 1900,
      "incapable": 1901,
      "injured": 1902,
      "rew": 1903,
      "repe": 1904,
      "renew": 1905,
      "reput": 1906,
      "remind": 1907,
      "repla": 1908,
      "recent": 1909,
      "republic": 1910,
      "anch": 1911,
      "atured": 1912,
      "attention": 1913,
      "atwur": 1914,
      "once": 1915,
      "theart": 1916,
      "ert": 1917,
      "eroy": 1918,
      "erath": 1919,
      "town": 1920,
      "toscan": 1921,
      "towers": 1922,
      "meus": 1923,
      "mesc": 1924,
      "merely": 1925,
      "ised": 1926,
      "ished": 1927,
      "llea": 1928,
      "nore": 1929,
      "nope": 1930,
      "nothin": 1931,
      "nobody": 1932,
      "held": 1933,
      "stig": 1934,
      "stro": 1935,
      "stun": 1936,
      "stra": 1937,
      "stick": 1938,
      "step": 1939,
      "strong": 1940,
      "states": 1941,
      "iting": 1942,
      "whacked": 1943,
      "orde": 1944,
      "orter": 1945,
      "orgy": 1946,
      "ense": 1947,
      "enter": 1948,
      "enci": 1949,
      "engl": 1950,
      "ential": 1951,
      "sear": 1952,
      "sees": 1953,
      "sever": 1954,
      "seam": 1955,
      "seiz": 1956,
      "weight": 1957,
      "velling": 1958,
      "beli": 1959,
      "beep": 1960,
      "becoming": 1961,
      "besid": 1962,
      "leto": 1963,
      "lead": 1964,
      "leman": 1965,
      "lebr": 1966,
      "lemme": 1967,
      "lemeus": 1968,
      "archie": 1969,
      "aries": 1970,
      "aristo": 1971,
      "artic": 1972,
      "assure": 1973,
      "ashed": 1974,
      "ando": 1975,
      "dom": 1976,
      "doin": 1977,
      "edward": 1978,
      "often": 1979,
      "whatso": 1980,
      "sold": 1981,
      "sock": 1982,
      "social": 1983,
      "alive": 1984,
      "alous": 1985,
      "alcat": 1986,
      "alert": 1987,
      "hack": 1988,
      "haired": 1989,
      "ignor": 1990,
      "ignore": 1991,
      "hote": 1992,
      "hoover": 1993,
      "holid": 1994,
      "hopes": 1995,
      "liked": 1996,
      "keys": 1997,
      "outnum": 1998,
      "force": 1999,
      "uted": 2000,
      "utes": 2001,
      "ution": 2002,
      "utap": 2003,
      "aded": 2004,
      "adway": 2005,
      "advice": 2006,
      "allow": 2007,
      "allowed": 2008,
      "rock": 2009,
      "roman": 2010,
      "room": 2011,
      "cked": 2012,
      "verge": 2013,
      "near": 2014,
      "nearly": 2015,
      "unci": 2016,
      "unity": 2017,
      "unsol": 2018,
      "uncle": 2019,
      "uncross": 2020,
      "coin": 2021,
      "cost": 2022,
      "cooper": 2023,
      "cows": 2024,
      "collea": 2025,
      "cancer": 2026,
      "canary": 2027,
      "canada": 2028,
      "loser": 2029,
      "locked": 2030,
      "caught": 2031,
      "test": 2032,
      "tect": 2033,
      "tequ": 2034,
      "teach": 2035,
      "celebr": 2036,
      "ifiable": 2037,
      "button": 2038,
      "butthol": 2039,
      "upbring": 2040,
      "gettin": 2041,
      "justifiable": 2042,
      "ries": 2043,
      "riag": 2044,
      "rictor": 2045,
      "tiest": 2046,
      "tims": 2047,
      "thering": 2048,
      "usage": 2049,
      "usivity": 2050,
      "whom": 2051,
      "whose": 2052,
      "impre": 2053,
      "immed": 2054,
      "poss": 2055,
      "pool": 2056,
      "poland": 2057,
      "poetry": 2058,
      "polish": 2059,
      "del": 2060,
      "dear": 2061,
      "depart": 2062,
      "deput": 2063,
      "degr": 2064,
      "depri": 2065,
      "detention": 2066,
      "ctly": 2067,
      "moxica": 2068,
      "peas": 2069,
      "peared": 2070,
      "pegg": 2071,
      "tamin": 2072,
      "taught": 2073,
      "takin": 2074,
      "bodies": 2075,
      "bothering": 2076,
      "indian": 2077,
      "induce": 2078,
      "ield": 2079,
      "guage": 2080,
      "endless": 2081,
      "thinks": 2082,
      "anyway": 2083,
      "anybody": 2084,
      "proven": 2085,
      "proper": 2086,
      "propose": 2087,
      "propos": 2088,
      "proxim": 2089,
      "protect": 2090,
      "track": 2091,
      "trag": 2092,
      "trash": 2093,
      "trashed": 2094,
      "male": 2095,
      "maga": 2096,
      "fee": 2097,
      "fear": 2098,
      "felon": 2099,
      "femin": 2100,
      "featured": 2101,
      "shorter": 2102,
      "shield": 2103,
      "ury": 2104,
      "uring": 2105,
      "urvy": 2106,
      "gotta": 2107,
      "gotten": 2108,
      "naked": 2109,
      "mend": 2110,
      "excl": 2111,
      "exposed": 2112,
      "extre": 2113,
      "extra": 2114,
      "looked": 2115,
      "fame": 2116,
      "faced": 2117,
      "fault": 2118,
      "faith": 2119,
      "laid": 2120,
      "laund": 2121,
      "manage": 2122,
      "letters": 2123,
      "savi": 2124,
      "sausage": 2125,
      "worst": 2126,
      "worse": 2127,
      "working": 2128,
      "convi": 2129,
      "concer": 2130,
      "concuss": 2131,
      "consid": 2132,
      "confid": 2133,
      "approve": 2134,
      "appeared": 2135,
      "spread": 2136,
      "spark": 2137,
      "spires": 2138,
      "wheel": 2139,
      "olved": 2140,
      "ideas": 2141,
      "present": 2142,
      "presid": 2143,
      "precise": 2144,
      "perate": 2145,
      "perish": 2146,
      "perspe": 2147,
      "tyr": 2148,
      "backfi": 2149,
      "backgr": 2150,
      "focused": 2151,
      "agne": 2152,
      "coulda": 2153,
      "quiz": 2154,
      "merci": 2155,
      "mercy": 2156,
      "mercen": 2157,
      "biolo": 2158,
      "bikers": 2159,
      "bility": 2160,
      "others": 2161,
      "comes": 2162,
      "ints": 2163,
      "ardize": 2164,
      "commend": 2165,
      "minors": 2166,
      "minutes": 2167,
      "vil": 2168,
      "vileg": 2169,
      "romat": 2170,
      "acting": 2171,
      "action": 2172,
      "asks": 2173,
      "gonad": 2174,
      "marin": 2175,
      "marry": 2176,
      "maria": 2177,
      "married": 2178,
      "marriag": 2179,
      "yelling": 2180,
      "chen": 2181,
      "chest": 2182,
      "icky": 2183,
      "putting": 2184,
      "started": 2185,
      "rules": 2186,
      "rubbed": 2187,
      "ruining": 2188,
      "cil": 2189,
      "diego": 2190,
      "join": 2191,
      "serial": 2192,
      "udes": 2193,
      "mistakes": 2194,
      "shoe": 2195,
      "ularly": 2196,
      "offic": 2197,
      "fireman": 2198,
      "undersex": 2199,
      "affect": 2200,
      "display": 2201,
      "disappeared": 2202,
      "speakers": 2203,
      "forever": 2204,
      "listened": 2205,
      "esteem": 2206,
      "monica": 2207,
      "monkeys": 2208,
      "helping": 2209,
      "ortunity": 2210,
      "decent": 2211,
      "everywhere": 2212,
      "waitin": 2213,
      "dream": 2214,
      "dreamed": 2215,
      "musta": 2216,
      "scary": 2217,
      "scurvy": 2218,
      "acy": 2219,
      "aces": 2220,
      "bratwur": 2221,
      "betty": 2222,
      "class": 2223,
      "runs": 2224,
      "medal": 2225,
      "media": 2226,
      "north": 2227,
      "cristo": 2228,
      "carried": 2229,
      "carries": 2230,
      "opardize": 2231,
      "plaque": 2232,
      "stores": 2233,
      "tonic": 2234,
      "trying": 2235,
      "shitfaced": 2236,
      "biggest": 2237,
      "tricks": 2238,
      "theirs": 2239,
      "study": 2240,
      "utely": 2241,
      "ctic": 2242,
      "efits": 2243,
      "ffed": 2244,
      "stayin": 2245,
      "lessons": 2246,
      "worlds": 2247,
      "prettiest": 2248,
      "drin": 2249,
      "drag": 2250,
      "pays": 2251,
      "payin": 2252,
      "payment": 2253,
      "issue": 2254,
      "truly": 2255,
      "bath": 2256,
      "bast": 2257,
      "babe": 2258,
      "certit": 2259,
      "count": 2260,
      "council": 2261,
      "empty": 2262,
      "gastro": 2263,
      "pull": 2264,
      "pulling": 2265,
      "remembers": 2266,
      "hearsay": 2267,
      "happening": 2268,
      "books": 2269,
      "pression": 2270,
      "broke": 2271,
      "broken": 2272,
      "broadway": 2273,
      "cribe": 2274,
      "famili": 2275,
      "glor": 2276,
      "kinda": 2277,
      "older": 2278,
      "sweetheart": 2279,
      "tux": 2280,
      "tube": 2281,
      "tutor": 2282,
      "tumesc": 2283,
      "veronica": 2284,
      "baby": 2285,
      "babble": 2286,
      "blown": 2287,
      "bloody": 2288,
      "burnside": 2289,
      "eval": 2290,
      "events": 2291,
      "ressed": 2292,
      "respect": 2293,
      "sexy": 2294,
      "questions": 2295,
      "decision": 2296,
      "interests": 2297,
      "interesting": 2298,
      "sleeping": 2299,
      "thousands": 2300,
      "dazz": 2301,
      "firm": 2302,
      "jew": 2303,
      "jealous": 2304,
      "jeopardize": 2305,
      "judge": 2306,
      "vorced": 2307,
      "realize": 2308,
      "lesbian": 2309,
      "maintain": 2310,
      "mainline": 2311,
      "cuffed": 2312,
      "chapin": 2313,
      "champ": 2314,
      "clock": 2315,
      "died": 2316,
      "divorced": 2317,
      "funny": 2318,
      "hates": 2319,
      "hatred": 2320,
      "harm": 2321,
      "harboring": 2322,
      "operation": 2323,
      "psycho": 2324,
      "inclination": 2325,
      "sooner": 2326,
      "along": 2327,
      "ticularly": 2328,
      "positions": 2329,
      "major": 2330,
      "patronize": 2331,
      "planning": 2332,
      "differently": 2333,
      "breed": 2334,
      "fled": 2335,
      "fighting": 2336,
      "kicking": 2337,
      "kicked": 2338,
      "lung": 2339,
      "privileg": 2340,
      "picks": 2341,
      "fully": 2342,
      "mission": 2343,
      "discussion": 2344,
      "screwboy": 2345,
      "opinions": 2346,
      "judged": 2347,
      "desperate": 2348,
      "describe": 2349,
      "damage": 2350,
      "finished": 2351,
      "freeze": 2352,
      "given": 2353,
      "particularly": 2354,
      "write": 2355,
      "writing": 2356,
      "returned": 2357,
      "coverage": 2358,
      "possessions": 2359,
      "mostly": 2360,
      "explore": 2361,
      "grandmothers": 2362,
      "freshmen": 2363,
      "european": 2364,
      "pictures": 2365,
      "unfortunately": 2366,
      "experience": 2367,
      "briefs": 2368,
      "briefed": 2369,
      "credit": 2370,
      "deny": 2371,
      "drawing": 2372,
      "drawers": 2373,
      "drugs": 2374,
      "ella": 2375,
      "elli": 2376,
      "huge": 2377,
      "human": 2378,
      "handcuffed": 2379,
      "kissing": 2380,
      "mandella": 2381,
      "midate": 2382,
      "middle": 2383,
      "viceroy": 2384,
      "victims": 2385,
      "reason": 2386,
      "reasons": 2387,
      "american": 2388,
      "travelling": 2389,
      "feeling": 2390,
      "expressing": 2391,
      "expression": 2392,
      "intends": 2393,
      "intended": 2394,
      "differ": 2395,
      "intestinal": 2396,
      "intestines": 2397,
      "including": 2398,
      "included": 2399,
      "suggests": 2400,
      "bank": 2401,
      "bonus": 2402,
      "diluted": 2403,
      "eighteen": 2404,
      "korfin": 2405,
      "mutiny": 2406,
      "palaces": 2407,
      "piece": 2408,
      "practic": 2409,
      "signed": 2410,
      "spectator": 2411,
      "involved": 2412,
      "retrieval": 2413,
      "stabbed": 2414,
      "strictly": 2415,
      "documents": 2416,
      "mystery": 2417,
      "roofs": 2418,
      "negotiate": 2419,
      "above": 2420,
      "absolutely": 2421,
      "terrorist": 2422,
      "motive": 2423,
      "amazing": 2424,
      "ambitious": 2425,
      "sperm": 2426,
      "spitting": 2427,
      "quadrant": 2428,
      "quickly": 2429,
      "compared": 2430,
      "ruthless": 2431,
      "elbow": 2432,
      "carrying": 2433,
      "pairs": 2434,
      "microphone": 2435,
      "barrels": 2436,
      "bargaining": 2437,
      "experiences": 2438,
      "attempting": 2439,
      "accomplishment": 2440,
      "benefits": 2441,
      "bundy": 2442,
      "birth": 2443,
      "blonde": 2444,
      "coffee": 2445,
      "course": 2446,
      "drunk": 2447,
      "eleven": 2448,
      "eternity": 2449,
      "emotion": 2450,
      "emergency": 2451,
      "flip": 2452,
      "fallacy": 2453,
      "fifty": 2454,
      "frightening": 2455,
      "folks": 2456,
      "friday": 2457,
      "fernando": 2458,
      "gimme": 2459,
      "gentleman": 2460,
      "gagging": 2461,
      "house": 2462,
      "hiding": 2463,
      "hungary": 2464,
      "hideous": 2465,
      "hmmmm": 2466,
      "humili": 2467,
      "jordy": 2468,
      "kmart": 2469,
      "kitchen": 2470,
      "knees": 2471,
      "language": 2472,
      "ostene": 2473,
      "opportunity": 2474,
      "occup": 2475,
      "ponies": 2476,
      "ptolemeus": 2477,
      "padua": 2478,
      "pirate": 2479,
      "pronunci": 2480,
      "random": 2481,
      "rarely": 2482,
      "rush": 2483,
      "smell": 2484,
      "simply": 2485,
      "smoke": 2486,
      "smack": 2487,
      "swore": 2488,
      "sudden": 2489,
      "slightly": 2490,
      "twist": 2491,
      "tendenci": 2492,
      "voyage": 2493,
      "wrestler": 2494,
      "thrives": 2495,
      "instru": 2496,
      "intimidate": 2497,
      "insane": 2498,
      "incredibly": 2499,
      "repeat": 2500,
      "reputation": 2501,
      "replaced": 2502,
      "recently": 2503,
      "anchor": 2504,
      "erathostene": 2505,
      "toscanelli": 2506,
      "stunning": 2507,
      "straight": 2508,
      "steppin": 2509,
      "ordered": 2510,
      "english": 2511,
      "severity": 2512,
      "seaman": 2513,
      "seizure": 2514,
      "believer": 2515,
      "besides": 2516,
      "aristotle": 2517,
      "articles": 2518,
      "assured": 2519,
      "whatsoever": 2520,
      "alcatraz": 2521,
      "hacking": 2522,
      "ignorance": 2523,
      "hotel": 2524,
      "holiday": 2525,
      "outnumbered": 2526,
      "utapan": 2527,
      "romania": 2528,
      "unsolved": 2529,
      "uncrossable": 2530,
      "cooperate": 2531,
      "colleagues": 2532,
      "tequila": 2533,
      "celebrity": 2534,
      "buttholus": 2535,
      "upbringing": 2536,
      "immediate": 2537,
      "possi": 2538,
      "department": 2539,
      "deputy": 2540,
      "degraded": 2541,
      "deprived": 2542,
      "pegged": 2543,
      "tamina": 2544,
      "protecting": 2545,
      "tragedy": 2546,
      "magazine": 2547,
      "felons": 2548,
      "exclusivity": 2549,
      "extremus": 2550,
      "laundromat": 2551,
      "savior": 2552,
      "convicted": 2553,
      "concern": 2554,
      "concussion": 2555,
      "consider": 2556,
      "confidential": 2557,
      "sparky": 2558,
      "president": 2559,
      "precisely": 2560,
      "perspective": 2561,
      "backfired": 2562,
      "background": 2563,
      "merciless": 2564,
      "biology": 2565,
      "marriages": 2566,
      "undersexed": 2567,
      "affection": 2568,
      "bratwurst": 2569,
      "cristobal": 2570,
      "certitudes": 2571,
      "familiar": 2572,
      "tumescent": 2573,
      "dazzle": 2574,
      "champagne": 2575,
      "psychotic": 2576,
      "privileges": 2577,
      "americans": 2578,
      "amazingly": 2579,
      "pronunciation": 2580,
      "tendencies": 2581,
      "'?": 2582,
      "0210": 2583,
      "15": 2584,
      "20": 2585,
      "22": 2586,
      "45": 2587,
      "90210": 2588,
      "ai": 2589,
      "aw": 2590,
      "ast": 2591,
      "athing": 2592,
      "aund": 2593,
      "acher": 2594,
      "ached": 2595,
      "bb": 2596,
      "bat": 2597,
      "ber": 2598,
      "bid": 2599,
      "bout": 2600,
      "bright": 2601,
      "bie": 2602,
      "bur": 2603,
      "bru": 2604,
      "bound": 2605,
      "blea": 2606,
      "bination": 2607,
      "bought": 2608,
      "cin": 2609,
      "cto": 2610,
      "cbe": 2611,
      "cun": 2612,
      "cir": 2613,
      "chow": 2614,
      "cie": 2615,
      "card": 2616,
      "cess": 2617,
      "city": 2618,
      "cute": 2619,
      "cum": 2620,
      "dig": 2621,
      "dare": 2622,
      "dea": 2623,
      "dri": 2624,
      "dous": 2625,
      "dist": 2626,
      "dick": 2627,
      "dak": 2628,
      "dict": 2629,
      "due": 2630,
      "during": 2631,
      "eg": 2632,
      "eth": 2633,
      "eat": 2634,
      "eved": 2635,
      "ecut": 2636,
      "eks": 2637,
      "evil": 2638,
      "eber": 2639,
      "fou": 2640,
      "fer": 2641,
      "fis": 2642,
      "fit": 2643,
      "fen": 2644,
      "fed": 2645,
      "flo": 2646,
      "fill": 2647,
      "fod": 2648,
      "fure": 2649,
      "flow": 2650,
      "frat": 2651,
      "falls": 2652,
      "fought": 2653,
      "gn": 2654,
      "gri": 2655,
      "gist": 2656,
      "gia": 2657,
      "gional": 2658,
      "grief": 2659,
      "groom": 2660,
      "gressed": 2661,
      "hor": 2662,
      "hind": 2663,
      "hours": 2664,
      "io": 2665,
      "ip": 2666,
      "ire": 2667,
      "ied": 2668,
      "ico": 2669,
      "ially": 2670,
      "iles": 2671,
      "iform": 2672,
      "jury": 2673,
      "kn": 2674,
      "ky": 2675,
      "ling": 2676,
      "lor": 2677,
      "las": 2678,
      "lad": 2679,
      "mmy": 2680,
      "mate": 2681,
      "mur": 2682,
      "mil": 2683,
      "mning": 2684,
      "mouth": 2685,
      "mbered": 2686,
      "miles": 2687,
      "ng": 2688,
      "natur": 2689,
      "nicky": 2690,
      "nico": 2691,
      "og": 2692,
      "os": 2693,
      "ot": 2694,
      "ote": 2695,
      "ota": 2696,
      "ogr": 2697,
      "oia": 2698,
      "oja": 2699,
      "oted": 2700,
      "oath": 2701,
      "pd": 2702,
      "py": 2703,
      "phe": 2704,
      "pas": 2705,
      "pup": 2706,
      "pea": 2707,
      "pack": 2708,
      "pic": 2709,
      "pour": 2710,
      "pity": 2711,
      "pain": 2712,
      "plow": 2713,
      "pms": 2714,
      "prick": 2715,
      "plore": 2716,
      "packed": 2717,
      "penter": 2718,
      "ran": 2719,
      "rig": 2720,
      "rho": 2721,
      "ram": 2722,
      "rack": 2723,
      "rap": 2724,
      "rine": 2725,
      "rag": 2726,
      "rating": 2727,
      "rise": 2728,
      "su": 2729,
      "sen": 2730,
      "sand": 2731,
      "sof": 2732,
      "sso": 2733,
      "sher": 2734,
      "sant": 2735,
      "sna": 2736,
      "sple": 2737,
      "sla": 2738,
      "squ": 2739,
      "ssed": 2740,
      "smar": 2741,
      "sci": 2742,
      "scare": 2743,
      "sort": 2744,
      "slit": 2745,
      "sass": 2746,
      "sence": 2747,
      "skin": 2748,
      "sub": 2749,
      "tar": 2750,
      "twi": 2751,
      "tte": 2752,
      "tally": 2753,
      "task": 2754,
      "tour": 2755,
      "ttle": 2756,
      "table": 2757,
      "treme": 2758,
      "twel": 2759,
      "tits": 2760,
      "tched": 2761,
      "ude": 2762,
      "uct": 2763,
      "ugue": 2764,
      "ucin": 2765,
      "vs": 2766,
      "vir": 2767,
      "vate": 2768,
      "vent": 2769,
      "voted": 2770,
      "wer": 2771,
      "wen": 2772,
      "wall": 2773,
      "wling": 2774,
      "xan": 2775,
      "xual": 2776,
      "xury": 2777,
      "ym": 2778,
      "yon": 2779,
      "yor": 2780,
      "zation": 2781,
      "zac": 2782,
      "zip": 2783,
      "ouble": 2784,
      "thie": 2785,
      "thug": 2786,
      "thai": 2787,
      "young": 2788,
      "inde": 2789,
      "inine": 2790,
      "inous": 2791,
      "iness": 2792,
      "inste": 2793,
      "infin": 2794,
      "insur": 2795,
      "instit": 2796,
      "rea": 2797,
      "reve": 2798,
      "rele": 2799,
      "rear": 2800,
      "rela": 2801,
      "request": 2802,
      "reje": 2803,
      "refle": 2804,
      "regre": 2805,
      "relied": 2806,
      "reach": 2807,
      "recru": 2808,
      "represent": 2809,
      "recommend": 2810,
      "regional": 2811,
      "anced": 2812,
      "anoia": 2813,
      "aton": 2814,
      "atta": 2815,
      "ators": 2816,
      "atulations": 2817,
      "ong": 2818,
      "theor": 2819,
      "eral": 2820,
      "ermo": 2821,
      "tolo": 2822,
      "toward": 2823,
      "toler": 2824,
      "tommy": 2825,
      "topic": 2826,
      "totally": 2827,
      "mere": 2828,
      "meant": 2829,
      "mess": 2830,
      "members": 2831,
      "mewling": 2832,
      "isy": 2833,
      "istr": 2834,
      "isine": 2835,
      "llo": 2836,
      "llshit": 2837,
      "llucin": 2838,
      "nood": 2839,
      "noble": 2840,
      "noose": 2841,
      "nomine": 2842,
      "nobility": 2843,
      "hes": 2844,
      "heat": 2845,
      "height": 2846,
      "heter": 2847,
      "heart": 2848,
      "hemor": 2849,
      "heinous": 2850,
      "ingo": 2851,
      "ings": 2852,
      "sty": 2853,
      "star": 2854,
      "sted": 2855,
      "stall": 2856,
      "stud": 2857,
      "stage": 2858,
      "stity": 2859,
      "stings": 2860,
      "ited": 2861,
      "itus": 2862,
      "itty": 2863,
      "itish": 2864,
      "orig": 2865,
      "orable": 2866,
      "orchest": 2867,
      "enar": 2868,
      "enact": 2869,
      "encoun": 2870,
      "sel": 2871,
      "seve": 2872,
      "secr": 2873,
      "secre": 2874,
      "weap": 2875,
      "welf": 2876,
      "veget": 2877,
      "vegg": 2878,
      "beef": 2879,
      "below": 2880,
      "behind": 2881,
      "beyon": 2882,
      "ara": 2883,
      "arm": 2884,
      "ariz": 2885,
      "arters": 2886,
      "aroja": 2887,
      "asion": 2888,
      "asant": 2889,
      "assail": 2890,
      "asinine": 2891,
      "gover": 2892,
      "gosh": 2893,
      "golf": 2894,
      "andrew": 2895,
      "dow": 2896,
      "domin": 2897,
      "alter": 2898,
      "ality": 2899,
      "almost": 2900,
      "although": 2901,
      "alog": 2902,
      "altar": 2903,
      "eshit": 2904,
      "habit": 2905,
      "haps": 2906,
      "hallucin": 2907,
      "igger": 2908,
      "igua": 2909,
      "hole": 2910,
      "holy": 2911,
      "hospit": 2912,
      "hostage": 2913,
      "lies": 2914,
      "lius": 2915,
      "limo": 2916,
      "lived": 2917,
      "likin": 2918,
      "kept": 2919,
      "wild": 2920,
      "wich": 2921,
      "nowhere": 2922,
      "outed": 2923,
      "outcall": 2924,
      "outside": 2925,
      "outnumber": 2926,
      "outran": 2927,
      "area": 2928,
      "fortu": 2929,
      "forces": 2930,
      "forbid": 2931,
      "utality": 2932,
      "geogr": 2933,
      "notions": 2934,
      "notaries": 2935,
      "ching": 2936,
      "chment": 2937,
      "chers": 2938,
      "chang": 2939,
      "chuck": 2940,
      "china": 2941,
      "charm": 2942,
      "ade": 2943,
      "admin": 2944,
      "adorable": 2945,
      "allure": 2946,
      "roll": 2947,
      "robbed": 2948,
      "roxan": 2949,
      "verbal": 2950,
      "verdict": 2951,
      "neat": 2952,
      "neck": 2953,
      "unlike": 2954,
      "unbal": 2955,
      "unknown": 2956,
      "uniform": 2957,
      "united": 2958,
      "coif": 2959,
      "como": 2960,
      "cozy": 2961,
      "coast": 2962,
      "color": 2963,
      "ably": 2964,
      "abuse": 2965,
      "absur": 2966,
      "absence": 2967,
      "lose": 2968,
      "loop": 2969,
      "herself": 2970,
      "cake": 2971,
      "tete": 2972,
      "team": 2973,
      "teacher": 2974,
      "teeth": 2975,
      "wash": 2976,
      "washes": 2977,
      "oking": 2978,
      "anted": 2979,
      "antigua": 2980,
      "ceive": 2981,
      "ife": 2982,
      "ifice": 2983,
      "upped": 2984,
      "upchuck": 2985,
      "heretic": 2986,
      "heresy": 2987,
      "irt": 2988,
      "iritus": 2989,
      "somewhat": 2990,
      "somehow": 2991,
      "somewhere": 2992,
      "each": 2993,
      "rix": 2994,
      "rial": 2995,
      "rich": 2996,
      "riches": 2997,
      "richest": 2998,
      "tip": 2999,
      "tired": 3000,
      "timer": 3001,
      "tips": 3002,
      "tivity": 3003,
      "timate": 3004,
      "tiara": 3005,
      "user": 3006,
      "usions": 3007,
      "usade": 3008,
      "whoever": 3009,
      "shell": 3010,
      "imper": 3011,
      "import": 3012,
      "impression": 3013,
      "impossi": 3014,
      "poor": 3015,
      "polo": 3016,
      "pocr": 3017,
      "power": 3018,
      "dement": 3019,
      "deep": 3020,
      "define": 3021,
      "deport": 3022,
      "deposition": 3023,
      "demand": 3024,
      "defend": 3025,
      "dehy": 3026,
      "depend": 3027,
      "devil": 3028,
      "demning": 3029,
      "deplore": 3030,
      "devoted": 3031,
      "term": 3032,
      "mored": 3033,
      "moment": 3034,
      "moors": 3035,
      "moments": 3036,
      "model": 3037,
      "pestu": 3038,
      "tame": 3039,
      "tage": 3040,
      "tape": 3041,
      "tail": 3042,
      "boom": 3043,
      "bottle": 3044,
      "indie": 3045,
      "indic": 3046,
      "guill": 3047,
      "guard": 3048,
      "ately": 3049,
      "ateur": 3050,
      "ending": 3051,
      "among": 3052,
      "amateur": 3053,
      "thinkin": 3054,
      "thinking": 3055,
      "prose": 3056,
      "proposed": 3057,
      "proves": 3058,
      "proposition": 3059,
      "prosper": 3060,
      "proached": 3061,
      "process": 3062,
      "progressed": 3063,
      "prophe": 3064,
      "prozac": 3065,
      "train": 3066,
      "trating": 3067,
      "trary": 3068,
      "trouble": 3069,
      "trigger": 3070,
      "mail": 3071,
      "makin": 3072,
      "macbe": 3073,
      "tells": 3074,
      "fell": 3075,
      "shine": 3076,
      "shrew": 3077,
      "shirt": 3078,
      "entually": 3079,
      "illeg": 3080,
      "urban": 3081,
      "nail": 3082,
      "pleasant": 3083,
      "mental": 3084,
      "expla": 3085,
      "execut": 3086,
      "extreme": 3087,
      "looks": 3088,
      "lookin": 3089,
      "fail": 3090,
      "facto": 3091,
      "mans": 3092,
      "manson": 3093,
      "maneu": 3094,
      "lets": 3095,
      "lette": 3096,
      "sage": 3097,
      "sacr": 3098,
      "saints": 3099,
      "worried": 3100,
      "congr": 3101,
      "content": 3102,
      "concen": 3103,
      "contin": 3104,
      "consum": 3105,
      "convin": 3106,
      "consci": 3107,
      "consecr": 3108,
      "condemning": 3109,
      "contrary": 3110,
      "wills": 3111,
      "willing": 3112,
      "apped": 3113,
      "approxim": 3114,
      "apeshit": 3115,
      "approached": 3116,
      "talent": 3117,
      "spent": 3118,
      "spine": 3119,
      "sport": 3120,
      "sprun": 3121,
      "spice": 3122,
      "spiritus": 3123,
      "whelm": 3124,
      "inem": 3125,
      "choose": 3126,
      "chosen": 3127,
      "seemed": 3128,
      "ously": 3129,
      "talker": 3130,
      "talked": 3131,
      "prepar": 3132,
      "prestig": 3133,
      "prefer": 3134,
      "perm": 3135,
      "perma": 3136,
      "permission": 3137,
      "persu": 3138,
      "perhaps": 3139,
      "perceive": 3140,
      "forest": 3141,
      "foot": 3142,
      "goodby": 3143,
      "agent": 3144,
      "couldn": 3145,
      "quit": 3146,
      "quart": 3147,
      "quote": 3148,
      "quarters": 3149,
      "dying": 3150,
      "woo": 3151,
      "wow": 3152,
      "woke": 3153,
      "wood": 3154,
      "mercial": 3155,
      "partrid": 3156,
      "bikin": 3157,
      "rather": 3158,
      "raise": 3159,
      "ravis": 3160,
      "raised": 3161,
      "introd": 3162,
      "intense": 3163,
      "ists": 3164,
      "selfish": 3165,
      "undressed": 3166,
      "common": 3167,
      "command": 3168,
      "combination": 3169,
      "commercial": 3170,
      "filius": 3171,
      "minor": 3172,
      "minas": 3173,
      "vily": 3174,
      "viously": 3175,
      "acts": 3176,
      "thoughts": 3177,
      "rendous": 3178,
      "marco": 3179,
      "martell": 3180,
      "marily": 3181,
      "fathers": 3182,
      "cheated": 3183,
      "cheeks": 3184,
      "pute": 3185,
      "meaning": 3186,
      "meanest": 3187,
      "meanwhile": 3188,
      "granted": 3189,
      "shows": 3190,
      "starting": 3191,
      "rumor": 3192,
      "rumored": 3193,
      "wave": 3194,
      "wake": 3195,
      "els": 3196,
      "joy": 3197,
      "joining": 3198,
      "servant": 3199,
      "shoulders": 3200,
      "ultimate": 3201,
      "offense": 3202,
      "fires": 3203,
      "schoolgirl": 3204,
      "bullshit": 3205,
      "burial": 3206,
      "cares": 3207,
      "kingdom": 3208,
      "overtime": 3209,
      "overwhelm": 3210,
      "fucker": 3211,
      "fuckers": 3212,
      "discovered": 3213,
      "disagree": 3214,
      "dispute": 3215,
      "daytime": 3216,
      "whip": 3217,
      "boys": 3218,
      "monk": 3219,
      "patris": 3220,
      "sitting": 3221,
      "helpin": 3222,
      "helpful": 3223,
      "everybody": 3224,
      "dreamer": 3225,
      "mustn": 3226,
      "scenar": 3227,
      "watches": 3228,
      "colonies": 3229,
      "actor": 3230,
      "activity": 3231,
      "brought": 3232,
      "british": 3233,
      "brutality": 3234,
      "calling": 3235,
      "called": 3236,
      "ugal": 3237,
      "ugly": 3238,
      "clint": 3239,
      "clouted": 3240,
      "finder": 3241,
      "finding": 3242,
      "swallow": 3243,
      "nors": 3244,
      "heads": 3245,
      "headway": 3246,
      "works": 3247,
      "workin": 3248,
      "worked": 3249,
      "crack": 3250,
      "crusade": 3251,
      "cargo": 3252,
      "carpenter": 3253,
      "opposed": 3254,
      "opening": 3255,
      "oppression": 3256,
      "places": 3257,
      "placen": 3258,
      "stopped": 3259,
      "tons": 3260,
      "trip": 3261,
      "trial": 3262,
      "effort": 3263,
      "finest": 3264,
      "prada": 3265,
      "prints": 3266,
      "stayed": 3267,
      "lower": 3268,
      "motherfucker": 3269,
      "pretend": 3270,
      "couch": 3271,
      "drated": 3272,
      "drama": 3273,
      "hip": 3274,
      "matolo": 3275,
      "pawn": 3276,
      "payroll": 3277,
      "sincer": 3278,
      "sinned": 3279,
      "super": 3280,
      "suppose": 3281,
      "settle": 3282,
      "setting": 3283,
      "shots": 3284,
      "shotgun": 3285,
      "bathes": 3286,
      "bitty": 3287,
      "bitches": 3288,
      "counted": 3289,
      "counsel": 3290,
      "game": 3291,
      "puking": 3292,
      "puked": 3293,
      "share": 3294,
      "shame": 3295,
      "shared": 3296,
      "remembered": 3297,
      "angry": 3298,
      "hearn": 3299,
      "hearing": 3300,
      "copy": 3301,
      "camello": 3302,
      "appointing": 3303,
      "dermatolo": 3304,
      "osexual": 3305,
      "slept": 3306,
      "sweep": 3307,
      "tue": 3308,
      "thirsty": 3309,
      "enemy": 3310,
      "keeps": 3311,
      "afterward": 3312,
      "block": 3313,
      "blosso": 3314,
      "burnt": 3315,
      "eventually": 3316,
      "santo": 3317,
      "sancti": 3318,
      "susan": 3319,
      "susie": 3320,
      "suspend": 3321,
      "result": 3322,
      "wholesome": 3323,
      "barbie": 3324,
      "bartolo": 3325,
      "busier": 3326,
      "business": 3327,
      "higher": 3328,
      "ject": 3329,
      "moron": 3330,
      "morgue": 3331,
      "steinem": 3332,
      "legs": 3333,
      "arrange": 3334,
      "problems": 3335,
      "trusting": 3336,
      "expecting": 3337,
      "persona": 3338,
      "personal": 3339,
      "personally": 3340,
      "plays": 3341,
      "cuba": 3342,
      "cuisine": 3343,
      "chair": 3344,
      "chaos": 3345,
      "chastity": 3346,
      "dip": 3347,
      "diary": 3348,
      "direct": 3349,
      "funeral": 3350,
      "music": 3351,
      "portugue": 3352,
      "portugal": 3353,
      "window": 3354,
      "include": 3355,
      "angel": 3356,
      "solve": 3357,
      "solariz": 3358,
      "lives": 3359,
      "eastwood": 3360,
      "excess": 3361,
      "profit": 3362,
      "profits": 3363,
      "highlight": 3364,
      "videocameras": 3365,
      "videotape": 3366,
      "breathing": 3367,
      "catalog": 3368,
      "price": 3369,
      "private": 3370,
      "hedge": 3371,
      "asurer": 3372,
      "golden": 3373,
      "admit": 3374,
      "admire": 3375,
      "rodney": 3376,
      "trade": 3377,
      "tradition": 3378,
      "missing": 3379,
      "buyl": 3380,
      "buyin": 3381,
      "gladly": 3382,
      "buildings": 3383,
      "cigarette": 3384,
      "suspects": 3385,
      "questioned": 3386,
      "judges": 3387,
      "!!!": 3388,
      "born": 3389,
      "blaise": 3390,
      "crew": 3391,
      "despair": 3392,
      "frenzy": 3393,
      "freely": 3394,
      "gym": 3395,
      "green": 3396,
      "ilization": 3397,
      "partial": 3398,
      "paranoia": 3399,
      "punching": 3400,
      "wrapped": 3401,
      "wiseguy": 3402,
      "returns": 3403,
      "stinky": 3404,
      "session": 3405,
      "haircut": 3406,
      "hopefully": 3407,
      "possession": 3408,
      "iculty": 3409,
      "filming": 3410,
      "grandma": 3411,
      "grandfather": 3412,
      "grandmother": 3413,
      "viewfinder": 3414,
      "professionals": 3415,
      "honor": 3416,
      "lighter": 3417,
      "obsess": 3418,
      "obsessions": 3419,
      "obviously": 3420,
      "object": 3421,
      "purse": 3422,
      "ski": 3423,
      "special": 3424,
      "speedy": 3425,
      "touched": 3426,
      "tinence": 3427,
      "trees": 3428,
      "treasurer": 3429,
      "innings": 3430,
      "beast": 3431,
      "learned": 3432,
      "tempestu": 3433,
      "populations": 3434,
      "america": 3435,
      "ship": 3436,
      "aphy": 3437,
      "precious": 3438,
      "following": 3439,
      "checked": 3440,
      "diffuser": 3441,
      "difficulty": 3442,
      "tribes": 3443,
      "prisoner": 3444,
      "lowenbra": 3445,
      "visiting": 3446,
      "daughter": 3447,
      "admirably": 3448,
      "dangerous": 3449,
      "bonchow": 3450,
      "brave": 3451,
      "blowdry": 3452,
      "cruise": 3453,
      "cruised": 3454,
      "dilating": 3455,
      "fender": 3456,
      "fenders": 3457,
      "germans": 3458,
      "korrine": 3459,
      "luxury": 3460,
      "mutant": 3461,
      "nonym": 3462,
      "palian": 3463,
      "pieces": 3464,
      "prague": 3465,
      "risk": 3466,
      "risks": 3467,
      "sign": 3468,
      "spectators": 3469,
      "title": 3470,
      "invoking": 3471,
      "retrieved": 3472,
      "heaven": 3473,
      "heavy": 3474,
      "heavily": 3475,
      "stabilization": 3476,
      "strike": 3477,
      "beatrix": 3478,
      "document": 3479,
      "mystique": 3480,
      "chicks": 3481,
      "chicken": 3482,
      "roofed": 3483,
      "negotiation": 3484,
      "aboard": 3485,
      "absolution": 3486,
      "teenage": 3487,
      "terrorizing": 3488,
      "mommy": 3489,
      "motives": 3490,
      "ambition": 3491,
      "sailing": 3492,
      "company": 3493,
      "killings": 3494,
      "elbows": 3495,
      "pastels": 3496,
      "microwave": 3497,
      "smoker": 3498,
      "smokes": 3499,
      "smokers": 3500,
      "barrett": 3501,
      "freaky": 3502,
      "correctly": 3503,
      "conditioner": 3504,
      "surrendering": 3505,
      "experienced": 3506,
      "russians": 3507,
      "attempted": 3508,
      "progressing": 3509,
      "000": 3510,
      "bags": 3511,
      "cliche": 3512,
      "clients": 3513,
      "cousin": 3514,
      "cousins": 3515,
      "crazy": 3516,
      "crazed": 3517,
      "ears": 3518,
      "earth": 3519,
      "fruit": 3520,
      "fruits": 3521,
      "hypocr": 3522,
      "lacking": 3523,
      "nature": 3524,
      "native": 3525,
      "panicky": 3526,
      "purer": 3527,
      "rites": 3528,
      "ritual": 3529,
      "route": 3530,
      "routine": 3531,
      "synonym": 3532,
      "suns": 3533,
      "sunshine": 3534,
      "score": 3535,
      "scope": 3536,
      "summer": 3537,
      "sucked": 3538,
      "tchya": 3539,
      "vintage": 3540,
      "wretch": 3541,
      "wretched": 3542,
      "witness": 3543,
      "warm": 3544,
      "walk": 3545,
      "walkin": 3546,
      "thrown": 3547,
      "throbb": 3548,
      "insists": 3549,
      "investig": 3550,
      "invested": 3551,
      "entering": 3552,
      "sears": 3553,
      "search": 3554,
      "leads": 3555,
      "domingo": 3556,
      "allows": 3557,
      "impregn": 3558,
      "impressed": 3559,
      "delusions": 3560,
      "indians": 3561,
      "proposing": 3562,
      "proposal": 3563,
      "proximity": 3564,
      "feminine": 3565,
      "feminist": 3566,
      "nakedness": 3567,
      "mercenary": 3568,
      "mercenaries": 3569,
      "commendable": 3570,
      "officers": 3571,
      "officially": 3572,
      "drink": 3573,
      "drinking": 3574,
      "bastion": 3575,
      "bastard": 3576,
      "glory": 3577,
      "gloria": 3578,
      "practicing": 3579,
      "practically": 3580,
      "humiliate": 3581,
      "humiliated": 3582,
      "occupation": 3583,
      "occupied": 3584,
      "smells": 3585,
      "instructor": 3586,
      "instruments": 3587,
      "immediately": 3588,
      "possible": 3589,
      "considering": 3590,
      "dazzled": 3591,
      "awfully": 3592,
      "aundrea": 3593,
      "battle": 3594,
      "burger": 3595,
      "brucie": 3596,
      "bleachers": 3597,
      "cunt": 3598,
      "circum": 3599,
      "dignity": 3600,
      "death": 3601,
      "driving": 3602,
      "distance": 3603,
      "dickhead": 3604,
      "dakota": 3605,
      "foul": 3606,
      "floor": 3607,
      "filled": 3608,
      "fodder": 3609,
      "flowers": 3610,
      "grill": 3611,
      "giacomo": 3612,
      "grooming": 3613,
      "horrendous": 3614,
      "knife": 3615,
      "ladder": 3616,
      "murder": 3617,
      "milk": 3618,
      "naturally": 3619,
      "nicolette": 3620,
      "passage": 3621,
      "puppy": 3622,
      "peace": 3623,
      "package": 3624,
      "pouring": 3625,
      "rhoid": 3626,
      "rampalian": 3627,
      "raping": 3628,
      "raging": 3629,
      "sandwich": 3630,
      "soft": 3631,
      "sheraton": 3632,
      "santangel": 3633,
      "snap": 3634,
      "spleen": 3635,
      "slavs": 3636,
      "square": 3637,
      "smarter": 3638,
      "sassy": 3639,
      "skinned": 3640,
      "suburban": 3641,
      "twice": 3642,
      "twelve": 3643,
      "uction": 3644,
      "virtue": 3645,
      "venturing": 3646,
      "wench": 3647,
      "york": 3648,
      "zipper": 3649,
      "thieves": 3650,
      "indeed": 3651,
      "instead": 3652,
      "infinite": 3653,
      "insurance": 3654,
      "institution": 3655,
      "reveal": 3656,
      "relevant": 3657,
      "relax": 3658,
      "rejected": 3659,
      "reflex": 3660,
      "regret": 3661,
      "reaching": 3662,
      "recruit": 3663,
      "represented": 3664,
      "recommended": 3665,
      "attachment": 3666,
      "theories": 3667,
      "tolerate": 3668,
      "message": 3669,
      "istration": 3670,
      "noodles": 3671,
      "nobles": 3672,
      "heights": 3673,
      "heterosexual": 3674,
      "hemorrhoid": 3675,
      "starving": 3676,
      "studies": 3677,
      "origin": 3678,
      "orchestrating": 3679,
      "enactments": 3680,
      "encounter": 3681,
      "severely": 3682,
      "secret": 3683,
      "weapons": 3684,
      "welfare": 3685,
      "vegetable": 3686,
      "veggie": 3687,
      "beyond": 3688,
      "arojaz": 3689,
      "governors": 3690,
      "dominated": 3691,
      "alternative": 3692,
      "hallucinations": 3693,
      "hospital": 3694,
      "outrank": 3695,
      "fortune": 3696,
      "geography": 3697,
      "changed": 3698,
      "administration": 3699,
      "roxanne": 3700,
      "unlikely": 3701,
      "unbalanced": 3702,
      "coiffure": 3703,
      "absurd": 3704,
      "heretical": 3705,
      "impertinence": 3706,
      "important": 3707,
      "impossibility": 3708,
      "demented": 3709,
      "demands": 3710,
      "dehydrated": 3711,
      "depends": 3712,
      "tails": 3713,
      "indicator": 3714,
      "guillermo": 3715,
      "guards": 3716,
      "amateurs": 3717,
      "prosperity": 3718,
      "prophet": 3719,
      "training": 3720,
      "macbeth": 3721,
      "illegally": 3722,
      "explain": 3723,
      "execution": 3724,
      "extremely": 3725,
      "failing": 3726,
      "factory": 3727,
      "maneuver": 3728,
      "sacrifice": 3729,
      "congratulations": 3730,
      "concentrating": 3731,
      "continent": 3732,
      "consuming": 3733,
      "convince": 3734,
      "conscience": 3735,
      "consecrate": 3736,
      "approximately": 3737,
      "sports": 3738,
      "sprung": 3739,
      "preparing": 3740,
      "prestige": 3741,
      "persuasion": 3742,
      "goodbye": 3743,
      "partridge": 3744,
      "bikini": 3745,
      "ravished": 3746,
      "introduction": 3747,
      "commoner": 3748,
      "marilyn": 3749,
      "scenario": 3750,
      "placenta": 3751,
      "efforts": 3752,
      "sincerity": 3753,
      "dermatologist": 3754,
      "afterwards": 3755,
      "blossoms": 3756,
      "suspended": 3757,
      "results": 3758,
      "bartolome": 3759,
      "portuguese": 3760,
      "solarization": 3761,
      "highlights": 3762,
      "tempestuous": 3763,
      "lowenbrau": 3764,
      "bonchowski": 3765,
      "blowdryer": 3766,
      "hypocrisy": 3767,
      "throbbing": 3768,
      "investigation": 3769,
      "impregnable": 3770,
      "circumference": 3771,
      "heterosexuality": 3772
    },
    "merges": [
      [
        "o",
        "u"
      ],
      [
        "t",
        "h"
      ],
      [
        "y",
        "ou"
      ],
      [
        "i",
        "n"
      ],
      [
        "r",
        "e"
      ],
      [
        "a",
        "n"
      ],
      [
        "a",
        "t"
      ],
      [
        "o",
        "n"
      ],
      [
        "th",
        "e"
      ],
      [
        "e",
        "r"
      ],
      [
        "t",
        "o"
      ],
      [
        "m",
        "e"
      ],
      [
        "i",
        "s"
      ],
      [
        "l",
        "l"
      ],
      [
        "n",
        "o"
      ],
      [
        "h",
        "e"
      ],
      [
        "in",
        "g"
      ],
      [
        ".",
        "."
      ],
      [
        "s",
        "t"
      ],
      [
        "i",
        "t"
      ],
      [
        "w",
        "h"
      ],
      [
        "o",
        "r"
      ],
      [
        "e",
        "n"
      ],
      [
        "s",
        "e"
      ],
      [
        "w",
        "e"
      ],
      [
        "v",
        "e"
      ],
      [
        "b",
        "e"
      ],
      [
        "l",
        "e"
      ],
      [
        "a",
        "r"
      ],
      [
        "a",
        "s"
      ],
      [
        "a",
        "y"
      ],
      [
        "g",
        "o"
      ],
      [
        "an",
        "d"
      ],
      [
        "th",
        "at"
      ],
      [
        "d",
        "o"
      ],
      [
        "e",
        "d"
      ],
      [
        "o",
        "f"
      ],
      [
        "i",
        "d"
      ],
      [
        "wh",
        "at"
      ],
      [
        "s",
        "o"
      ],
      [
        "a",
        "l"
      ],
      [
        "e",
        "s"
      ],
      [
        "h",
        "a"
      ],
      [
        "i",
        "g"
      ],
      [
        "h",
        "o"
      ],
      [
        "..",
        "."
      ],
      [
        "l",
        "i"
      ],
      [
        "you",
        "r"
      ],
      [
        "k",
        "e"
      ],
      [
        "w",
        "i"
      ],
      [
        "no",
        "w"
      ],
      [
        "h",
        "t"
      ],
      [
        "ou",
        "t"
      ],
      [
        "a",
        "re"
      ],
      [
        "l",
        "d"
      ],
      [
        "f",
        "or"
      ],
      [
        "d",
        "on"
      ],
      [
        "m",
        "y"
      ],
      [
        "u",
        "t"
      ],
      [
        "g",
        "e"
      ],
      [
        "no",
        "t"
      ],
      [
        "c",
        "h"
      ],
      [
        "a",
        "d"
      ],
      [
        "a",
        "ll"
      ],
      [
        "r",
        "o"
      ],
      [
        "c",
        "k"
      ],
      [
        "v",
        "er"
      ],
      [
        "ig",
        "ht"
      ],
      [
        "n",
        "e"
      ],
      [
        "k",
        "now"
      ],
      [
        "on",
        "e"
      ],
      [
        "u",
        "n"
      ],
      [
        "wi",
        "th"
      ],
      [
        "c",
        "o"
      ],
      [
        "ha",
        "ve"
      ],
      [
        "c",
        "an"
      ],
      [
        "a",
        "b"
      ],
      [
        "i",
        "on"
      ],
      [
        "l",
        "o"
      ],
      [
        "h",
        "er"
      ],
      [
        "u",
        "st"
      ],
      [
        "c",
        "a"
      ],
      [
        "t",
        "e"
      ],
      [
        "w",
        "as"
      ],
      [
        "o",
        "k"
      ],
      [
        "an",
        "t"
      ],
      [
        "c",
        "e"
      ],
      [
        "th",
        "ing"
      ],
      [
        "th",
        "is"
      ],
      [
        "ou",
        "ld"
      ],
      [
        "i",
        "f"
      ],
      [
        "l",
        "y"
      ],
      [
        "b",
        "ut"
      ],
      [
        "u",
        "p"
      ],
      [
        "ge",
        "t"
      ],
      [
        "he",
        "re"
      ],
      [
        "li",
        "ke"
      ],
      [
        "i",
        "r"
      ],
      [
        "so",
        "me"
      ],
      [
        "j",
        "ust"
      ],
      [
        "ho",
        "w"
      ],
      [
        "e",
        "a"
      ],
      [
        "r",
        "i"
      ],
      [
        "t",
        "i"
      ],
      [
        "the",
        "r"
      ],
      [
        "w",
        "ant"
      ],
      [
        "u",
        "s"
      ],
      [
        "wh",
        "o"
      ],
      [
        "s",
        "he"
      ],
      [
        "r",
        "ight"
      ],
      [
        "i",
        "m"
      ],
      [
        "d",
        "id"
      ],
      [
        "p",
        "o"
      ],
      [
        "d",
        "e"
      ],
      [
        "t",
        "er"
      ],
      [
        "ab",
        "out"
      ],
      [
        "c",
        "t"
      ],
      [
        "m",
        "o"
      ],
      [
        "p",
        "e"
      ],
      [
        "s",
        "ay"
      ],
      [
        "t",
        "a"
      ],
      [
        "b",
        "o"
      ],
      [
        "in",
        "d"
      ],
      [
        "i",
        "e"
      ],
      [
        "th",
        "in"
      ],
      [
        "g",
        "u"
      ],
      [
        "w",
        "ay"
      ],
      [
        "at",
        "e"
      ],
      [
        "the",
        "y"
      ],
      [
        "en",
        "d"
      ],
      [
        "ar",
        "t"
      ],
      [
        "a",
        "m"
      ],
      [
        "u",
        "se"
      ],
      [
        "thin",
        "k"
      ],
      [
        "an",
        "y"
      ],
      [
        "the",
        "re"
      ],
      [
        "p",
        "ro"
      ],
      [
        "t",
        "r"
      ],
      [
        "m",
        "a"
      ],
      [
        "y",
        "ea"
      ],
      [
        "yea",
        "h"
      ],
      [
        "a",
        "ck"
      ],
      [
        "te",
        "ll"
      ],
      [
        "f",
        "e"
      ],
      [
        "s",
        "h"
      ],
      [
        "wh",
        "y"
      ],
      [
        "en",
        "t"
      ],
      [
        "i",
        "ll"
      ],
      [
        "u",
        "r"
      ],
      [
        "go",
        "t"
      ],
      [
        "n",
        "a"
      ],
      [
        "p",
        "le"
      ],
      [
        "o",
        "d"
      ],
      [
        "u",
        "re"
      ],
      [
        "me",
        "n"
      ],
      [
        "e",
        "x"
      ],
      [
        "s",
        "s"
      ],
      [
        "h",
        "im"
      ],
      [
        "ou",
        "g"
      ],
      [
        "all",
        "y"
      ],
      [
        "the",
        "n"
      ],
      [
        "lo",
        "ok"
      ],
      [
        "f",
        "a"
      ],
      [
        "l",
        "a"
      ],
      [
        "m",
        "an"
      ],
      [
        "le",
        "t"
      ],
      [
        "s",
        "a"
      ],
      [
        "w",
        "or"
      ],
      [
        "c",
        "on"
      ],
      [
        "wi",
        "ll"
      ],
      [
        "a",
        "p"
      ],
      [
        "t",
        "al"
      ],
      [
        "we",
        "re"
      ],
      [
        "s",
        "p"
      ],
      [
        "v",
        "en"
      ],
      [
        "w",
        "he"
      ],
      [
        "w",
        "ould"
      ],
      [
        "in",
        "e"
      ],
      [
        "e",
        "ver"
      ],
      [
        "ne",
        "ver"
      ],
      [
        "c",
        "ho"
      ],
      [
        "i",
        "ve"
      ],
      [
        "o",
        "l"
      ],
      [
        "w",
        "here"
      ],
      [
        "se",
        "e"
      ],
      [
        "we",
        "ll"
      ],
      [
        "g",
        "ir"
      ],
      [
        "ou",
        "s"
      ],
      [
        "id",
        "e"
      ],
      [
        "gu",
        "y"
      ],
      [
        "tal",
        "k"
      ],
      [
        "gir",
        "l"
      ],
      [
        "p",
        "re"
      ],
      [
        "p",
        "er"
      ],
      [
        "t",
        "y"
      ],
      [
        "at",
        "ion"
      ],
      [
        "some",
        "thing"
      ],
      [
        "whe",
        "n"
      ],
      [
        "b",
        "ack"
      ],
      [
        "f",
        "o"
      ],
      [
        "r",
        "y"
      ],
      [
        "w",
        "n"
      ],
      [
        "go",
        "od"
      ],
      [
        "ok",
        "ay"
      ],
      [
        "a",
        "g"
      ],
      [
        "c",
        "ould"
      ],
      [
        "q",
        "u"
      ],
      [
        "re",
        "d"
      ],
      [
        "d",
        "y"
      ],
      [
        "y",
        "es"
      ],
      [
        "l",
        "on"
      ],
      [
        "w",
        "o"
      ],
      [
        "do",
        "es"
      ],
      [
        "ca",
        "use"
      ],
      [
        "did",
        "n"
      ],
      [
        "i",
        "c"
      ],
      [
        "the",
        "m"
      ],
      [
        "b",
        "y"
      ],
      [
        "l",
        "f"
      ],
      [
        "m",
        "er"
      ],
      [
        "p",
        "art"
      ],
      [
        "th",
        "oug"
      ],
      [
        "go",
        "ing"
      ],
      [
        "ti",
        "me"
      ],
      [
        "ta",
        "ke"
      ],
      [
        "b",
        "i"
      ],
      [
        "o",
        "ther"
      ],
      [
        "ou",
        "n"
      ],
      [
        "re",
        "ad"
      ],
      [
        "ne",
        "ed"
      ],
      [
        "co",
        "me"
      ],
      [
        "f",
        "ri"
      ],
      [
        "h",
        "is"
      ],
      [
        "r",
        "a"
      ],
      [
        "in",
        "t"
      ],
      [
        "is",
        "t"
      ],
      [
        "se",
        "lf"
      ],
      [
        "ar",
        "d"
      ],
      [
        "ha",
        "d"
      ],
      [
        "un",
        "d"
      ],
      [
        "fri",
        "end"
      ],
      [
        "f",
        "u"
      ],
      [
        "g",
        "ive"
      ],
      [
        "m",
        "ay"
      ],
      [
        "co",
        "m"
      ],
      [
        "f",
        "i"
      ],
      [
        "m",
        "in"
      ],
      [
        "v",
        "i"
      ],
      [
        "se",
        "d"
      ],
      [
        "be",
        "cause"
      ],
      [
        "ro",
        "m"
      ],
      [
        "a",
        "ct"
      ],
      [
        "k",
        "ill"
      ],
      [
        "o",
        "h"
      ],
      [
        "u",
        "ch"
      ],
      [
        "re",
        "ally"
      ],
      [
        "as",
        "k"
      ],
      [
        "ne",
        "w"
      ],
      [
        "thoug",
        "ht"
      ],
      [
        "f",
        "rom"
      ],
      [
        "g",
        "on"
      ],
      [
        "re",
        "n"
      ],
      [
        "men",
        "t"
      ],
      [
        "h",
        "as"
      ],
      [
        "k",
        "id"
      ],
      [
        "m",
        "ar"
      ],
      [
        "s",
        "ure"
      ],
      [
        "y",
        "e"
      ],
      [
        "es",
        "s"
      ],
      [
        "one",
        "y"
      ],
      [
        "mo",
        "re"
      ],
      [
        "ma",
        "ke"
      ],
      [
        "fa",
        "ther"
      ],
      [
        "c",
        "he"
      ],
      [
        "i",
        "ck"
      ],
      [
        "p",
        "ut"
      ],
      [
        "th",
        "an"
      ],
      [
        "me",
        "an"
      ],
      [
        "we",
        "e"
      ],
      [
        "go",
        "d"
      ],
      [
        "bi",
        "an"
      ],
      [
        "read",
        "y"
      ],
      [
        "gon",
        "na"
      ],
      [
        "g",
        "r"
      ],
      [
        "m",
        "b"
      ],
      [
        "o",
        "ple"
      ],
      [
        "s",
        "how"
      ],
      [
        "st",
        "art"
      ],
      [
        "be",
        "en"
      ],
      [
        "ch",
        "ie"
      ],
      [
        "pe",
        "ople"
      ],
      [
        "ur",
        "n"
      ],
      [
        "may",
        "be"
      ],
      [
        "e",
        "p"
      ],
      [
        "e",
        "ven"
      ],
      [
        "r",
        "u"
      ],
      [
        "w",
        "a"
      ],
      [
        "w",
        "on"
      ],
      [
        "z",
        "e"
      ],
      [
        "ou",
        "r"
      ],
      [
        "to",
        "o"
      ],
      [
        "al",
        "right"
      ],
      [
        "way",
        "s"
      ],
      [
        "bian",
        "ca"
      ],
      [
        "c",
        "i"
      ],
      [
        "d",
        "ie"
      ],
      [
        "e",
        "l"
      ],
      [
        "j",
        "o"
      ],
      [
        "s",
        "er"
      ],
      [
        "u",
        "d"
      ],
      [
        "al",
        "ways"
      ],
      [
        "li",
        "e"
      ],
      [
        "ca",
        "mer"
      ],
      [
        "po",
        "int"
      ],
      [
        "sh",
        "ould"
      ],
      [
        "chie",
        "f"
      ],
      [
        "a",
        "ge"
      ],
      [
        "m",
        "is"
      ],
      [
        "m",
        "ind"
      ],
      [
        "s",
        "on"
      ],
      [
        "s",
        "ho"
      ],
      [
        "s",
        "cho"
      ],
      [
        "u",
        "l"
      ],
      [
        "re",
        "at"
      ],
      [
        "st",
        "and"
      ],
      [
        "it",
        "y"
      ],
      [
        "of",
        "f"
      ],
      [
        "oun",
        "d"
      ],
      [
        "fi",
        "re"
      ],
      [
        "scho",
        "ol"
      ],
      [
        "b",
        "u"
      ],
      [
        "c",
        "are"
      ],
      [
        "k",
        "ing"
      ],
      [
        "l",
        "ist"
      ],
      [
        "o",
        "ver"
      ],
      [
        "r",
        "on"
      ],
      [
        "s",
        "is"
      ],
      [
        "re",
        "st"
      ],
      [
        "on",
        "ly"
      ],
      [
        "er",
        "s"
      ],
      [
        "he",
        "y"
      ],
      [
        "do",
        "ing"
      ],
      [
        "und",
        "er"
      ],
      [
        "fu",
        "ck"
      ],
      [
        "sis",
        "ter"
      ],
      [
        "a",
        "f"
      ],
      [
        "b",
        "l"
      ],
      [
        "d",
        "is"
      ],
      [
        "d",
        "ay"
      ],
      [
        "d",
        "ate"
      ],
      [
        "i",
        "l"
      ],
      [
        "t",
        "le"
      ],
      [
        "re",
        "e"
      ],
      [
        "wh",
        "i"
      ],
      [
        "ea",
        "k"
      ],
      [
        "bo",
        "y"
      ],
      [
        "sp",
        "eak"
      ],
      [
        "fo",
        "re"
      ],
      [
        "does",
        "n"
      ],
      [
        "list",
        "en"
      ],
      [
        "a",
        "in"
      ],
      [
        "b",
        "ad"
      ],
      [
        "e",
        "st"
      ],
      [
        "i",
        "a"
      ],
      [
        "l",
        "p"
      ],
      [
        "m",
        "on"
      ],
      [
        "m",
        "uch"
      ],
      [
        "m",
        "oney"
      ],
      [
        "n",
        "ight"
      ],
      [
        "p",
        "p"
      ],
      [
        "p",
        "at"
      ],
      [
        "s",
        "it"
      ],
      [
        "t",
        "wo"
      ],
      [
        "he",
        "lp"
      ],
      [
        "or",
        "t"
      ],
      [
        "le",
        "a"
      ],
      [
        "do",
        "wn"
      ],
      [
        "some",
        "one"
      ],
      [
        "ti",
        "l"
      ],
      [
        "de",
        "c"
      ],
      [
        "pe",
        "ct"
      ],
      [
        "ever",
        "y"
      ],
      [
        "ye",
        "ar"
      ],
      [
        "wa",
        "it"
      ],
      [
        "d",
        "re"
      ],
      [
        "l",
        "it"
      ],
      [
        "m",
        "ust"
      ],
      [
        "p",
        "l"
      ],
      [
        "s",
        "c"
      ],
      [
        "w",
        "at"
      ],
      [
        "at",
        "ing"
      ],
      [
        "is",
        "h"
      ],
      [
        "be",
        "fore"
      ],
      [
        "li",
        "fe"
      ],
      [
        "co",
        "lon"
      ],
      [
        "ion",
        "s"
      ],
      [
        "any",
        "thing"
      ],
      [
        "under",
        "stand"
      ],
      [
        "a",
        "c"
      ],
      [
        "b",
        "r"
      ],
      [
        "c",
        "all"
      ],
      [
        "i",
        "es"
      ],
      [
        "l",
        "and"
      ],
      [
        "u",
        "g"
      ],
      [
        "u",
        "ally"
      ],
      [
        "w",
        "ent"
      ],
      [
        "to",
        "r"
      ],
      [
        "be",
        "t"
      ],
      [
        "as",
        "s"
      ],
      [
        "ed",
        "die"
      ],
      [
        "un",
        "til"
      ],
      [
        "us",
        "s"
      ],
      [
        "sa",
        "id"
      ],
      [
        "c",
        "l"
      ],
      [
        "c",
        "ze"
      ],
      [
        "f",
        "ind"
      ],
      [
        "k",
        "at"
      ],
      [
        "r",
        "un"
      ],
      [
        "s",
        "w"
      ],
      [
        "s",
        "ide"
      ],
      [
        "t",
        "urn"
      ],
      [
        "me",
        "d"
      ],
      [
        "no",
        "r"
      ],
      [
        "he",
        "ad"
      ],
      [
        "en",
        "ce"
      ],
      [
        "be",
        "lie"
      ],
      [
        "oug",
        "h"
      ],
      [
        "wor",
        "k"
      ],
      [
        "wee",
        "k"
      ],
      [
        "belie",
        "ve"
      ],
      [
        "c",
        "r"
      ],
      [
        "c",
        "ar"
      ],
      [
        "d",
        "ad"
      ],
      [
        "i",
        "ld"
      ],
      [
        "o",
        "p"
      ],
      [
        "p",
        "la"
      ],
      [
        "s",
        "to"
      ],
      [
        "t",
        "on"
      ],
      [
        "your",
        "self"
      ],
      [
        "ab",
        "le"
      ],
      [
        "ca",
        "se"
      ],
      [
        "tr",
        "y"
      ],
      [
        "sh",
        "it"
      ],
      [
        "guy",
        "s"
      ],
      [
        "part",
        "y"
      ],
      [
        "bl",
        "ind"
      ],
      [
        "lit",
        "tle"
      ],
      [
        "a",
        "way"
      ],
      [
        "b",
        "ig"
      ],
      [
        "d",
        "if"
      ],
      [
        "e",
        "y"
      ],
      [
        "n",
        "ing"
      ],
      [
        "o",
        "wn"
      ],
      [
        "t",
        "ri"
      ],
      [
        "v",
        "ie"
      ],
      [
        "w",
        "an"
      ],
      [
        "the",
        "ir"
      ],
      [
        "to",
        "ld"
      ],
      [
        "no",
        "thing"
      ],
      [
        "he",
        "ard"
      ],
      [
        "st",
        "u"
      ],
      [
        "st",
        "ill"
      ],
      [
        "al",
        "ready"
      ],
      [
        "for",
        "get"
      ],
      [
        "ut",
        "e"
      ],
      [
        "po",
        "sed"
      ],
      [
        "say",
        "s"
      ],
      [
        "fe",
        "ren"
      ],
      [
        "la",
        "w"
      ],
      [
        "lon",
        "g"
      ],
      [
        "jo",
        "ey"
      ],
      [
        "bet",
        "ter"
      ],
      [
        "dad",
        "dy"
      ],
      [
        "wan",
        "na"
      ],
      [
        "a",
        "k"
      ],
      [
        "b",
        "le"
      ],
      [
        "c",
        "ti"
      ],
      [
        "e",
        "f"
      ],
      [
        "f",
        "f"
      ],
      [
        "f",
        "ine"
      ],
      [
        "g",
        "reat"
      ],
      [
        "k",
        "es"
      ],
      [
        "p",
        "r"
      ],
      [
        "p",
        "t"
      ],
      [
        "u",
        "h"
      ],
      [
        "in",
        "te"
      ],
      [
        "st",
        "ay"
      ],
      [
        "le",
        "ss"
      ],
      [
        "lo",
        "w"
      ],
      [
        "want",
        "ed"
      ],
      [
        "mo",
        "ther"
      ],
      [
        "gu",
        "ess"
      ],
      [
        "use",
        "d"
      ],
      [
        "wor",
        "ld"
      ],
      [
        "pre",
        "t"
      ],
      [
        "act",
        "ually"
      ],
      [
        "mb",
        "er"
      ],
      [
        "el",
        "se"
      ],
      [
        "dre",
        "ss"
      ],
      [
        "c",
        "ou"
      ],
      [
        "c",
        "ent"
      ],
      [
        "d",
        "r"
      ],
      [
        "h",
        "i"
      ],
      [
        "i",
        "ous"
      ],
      [
        "m",
        "at"
      ],
      [
        "p",
        "a"
      ],
      [
        "p",
        "ay"
      ],
      [
        "r",
        "id"
      ],
      [
        "s",
        "in"
      ],
      [
        "s",
        "up"
      ],
      [
        "v",
        "ing"
      ],
      [
        "the",
        "se"
      ],
      [
        "is",
        "s"
      ],
      [
        "or",
        "se"
      ],
      [
        "se",
        "t"
      ],
      [
        "are",
        "n"
      ],
      [
        "bo",
        "dy"
      ],
      [
        "tr",
        "u"
      ],
      [
        "girl",
        "s"
      ],
      [
        "show",
        "er"
      ],
      [
        "sho",
        "t"
      ],
      [
        "whi",
        "le"
      ],
      [
        "wat",
        "ch"
      ],
      [
        "cze",
        "ch"
      ],
      [
        "b",
        "a"
      ],
      [
        "b",
        "it"
      ],
      [
        "c",
        "er"
      ],
      [
        "c",
        "oun"
      ],
      [
        "e",
        "m"
      ],
      [
        "f",
        "an"
      ],
      [
        "f",
        "ound"
      ],
      [
        "g",
        "a"
      ],
      [
        "g",
        "one"
      ],
      [
        "i",
        "z"
      ],
      [
        "i",
        "ce"
      ],
      [
        "l",
        "at"
      ],
      [
        "m",
        "ight"
      ],
      [
        "m",
        "any"
      ],
      [
        "p",
        "u"
      ],
      [
        "s",
        "ha"
      ],
      [
        "t",
        "ing"
      ],
      [
        "re",
        "me"
      ],
      [
        "an",
        "g"
      ],
      [
        "an",
        "other"
      ],
      [
        "an",
        "sw"
      ],
      [
        "is",
        "e"
      ],
      [
        "he",
        "ar"
      ],
      [
        "st",
        "up"
      ],
      [
        "it",
        "e"
      ],
      [
        "en",
        "ed"
      ],
      [
        "en",
        "ough"
      ],
      [
        "ha",
        "pp"
      ],
      [
        "co",
        "p"
      ],
      [
        "ca",
        "me"
      ],
      [
        "bo",
        "ok"
      ],
      [
        "pro",
        "mis"
      ],
      [
        "ple",
        "te"
      ],
      [
        "ap",
        "point"
      ],
      [
        "pre",
        "ss"
      ],
      [
        "com",
        "plete"
      ],
      [
        "vi",
        "ce"
      ],
      [
        "camer",
        "on"
      ],
      [
        "stu",
        "ff"
      ],
      [
        "mat",
        "ter"
      ],
      [
        "answ",
        "er"
      ],
      [
        "stup",
        "id"
      ],
      [
        "promis",
        "e"
      ],
      [
        "b",
        "ro"
      ],
      [
        "c",
        "ri"
      ],
      [
        "d",
        "er"
      ],
      [
        "f",
        "t"
      ],
      [
        "f",
        "am"
      ],
      [
        "g",
        "l"
      ],
      [
        "h",
        "ate"
      ],
      [
        "i",
        "ct"
      ],
      [
        "k",
        "ind"
      ],
      [
        "m",
        "s"
      ],
      [
        "m",
        "ad"
      ],
      [
        "m",
        "ic"
      ],
      [
        "o",
        "se"
      ],
      [
        "o",
        "ld"
      ],
      [
        "s",
        "le"
      ],
      [
        "s",
        "uch"
      ],
      [
        "s",
        "wee"
      ],
      [
        "t",
        "u"
      ],
      [
        "t",
        "en"
      ],
      [
        "th",
        "ir"
      ],
      [
        "an",
        "ce"
      ],
      [
        "on",
        "es"
      ],
      [
        "is",
        "n"
      ],
      [
        "en",
        "e"
      ],
      [
        "le",
        "ft"
      ],
      [
        "ke",
        "ep"
      ],
      [
        "ver",
        "on"
      ],
      [
        "know",
        "s"
      ],
      [
        "qu",
        "e"
      ],
      [
        "kill",
        "er"
      ],
      [
        "ser",
        "ious"
      ],
      [
        "bu",
        "ild"
      ],
      [
        "af",
        "ter"
      ],
      [
        "boy",
        "friend"
      ],
      [
        "br",
        "ing"
      ],
      [
        "ton",
        "ight"
      ],
      [
        "dif",
        "feren"
      ],
      [
        "cti",
        "ve"
      ],
      [
        "pret",
        "ty"
      ],
      [
        "sup",
        "posed"
      ],
      [
        "complete",
        "ly"
      ],
      [
        "?",
        "!"
      ],
      [
        "b",
        "ab"
      ],
      [
        "b",
        "lo"
      ],
      [
        "b",
        "urn"
      ],
      [
        "c",
        "ig"
      ],
      [
        "d",
        "ing"
      ],
      [
        "d",
        "orse"
      ],
      [
        "e",
        "t"
      ],
      [
        "e",
        "v"
      ],
      [
        "k",
        "new"
      ],
      [
        "m",
        "m"
      ],
      [
        "s",
        "m"
      ],
      [
        "s",
        "an"
      ],
      [
        "s",
        "or"
      ],
      [
        "s",
        "us"
      ],
      [
        "s",
        "end"
      ],
      [
        "u",
        "m"
      ],
      [
        "v",
        "is"
      ],
      [
        "x",
        "t"
      ],
      [
        "th",
        "ous"
      ],
      [
        "in",
        "to"
      ],
      [
        "re",
        "s"
      ],
      [
        "he",
        "ll"
      ],
      [
        "st",
        "ate"
      ],
      [
        "en",
        "s"
      ],
      [
        "se",
        "x"
      ],
      [
        "ar",
        "y"
      ],
      [
        "al",
        "one"
      ],
      [
        "ha",
        "ven"
      ],
      [
        "ne",
        "xt"
      ],
      [
        "ri",
        "ck"
      ],
      [
        "who",
        "le"
      ],
      [
        "mo",
        "vie"
      ],
      [
        "ta",
        "in"
      ],
      [
        "pro",
        "m"
      ],
      [
        "look",
        "ing"
      ],
      [
        "talk",
        "ing"
      ],
      [
        "ag",
        "ain"
      ],
      [
        "qu",
        "est"
      ],
      [
        "dec",
        "is"
      ],
      [
        "sto",
        "ry"
      ],
      [
        "inte",
        "rest"
      ],
      [
        "sle",
        "ep"
      ],
      [
        "thir",
        "ty"
      ],
      [
        "dorse",
        "y"
      ],
      [
        "sor",
        "ry"
      ],
      [
        "thous",
        "and"
      ],
      [
        "a",
        "go"
      ],
      [
        "b",
        "ar"
      ],
      [
        "b",
        "us"
      ],
      [
        "c",
        "ed"
      ],
      [
        "c",
        "uss"
      ],
      [
        "d",
        "a"
      ],
      [
        "d",
        "ating"
      ],
      [
        "e",
        "as"
      ],
      [
        "f",
        "re"
      ],
      [
        "f",
        "ir"
      ],
      [
        "g",
        "un"
      ],
      [
        "h",
        "al"
      ],
      [
        "h",
        "ig"
      ],
      [
        "h",
        "oney"
      ],
      [
        "i",
        "am"
      ],
      [
        "j",
        "e"
      ],
      [
        "j",
        "ud"
      ],
      [
        "m",
        "or"
      ],
      [
        "m",
        "ill"
      ],
      [
        "o",
        "m"
      ],
      [
        "p",
        "in"
      ],
      [
        "r",
        "at"
      ],
      [
        "v",
        "or"
      ],
      [
        "w",
        "ard"
      ],
      [
        "y",
        "er"
      ],
      [
        "re",
        "al"
      ],
      [
        "to",
        "ok"
      ],
      [
        "ll",
        "ar"
      ],
      [
        "st",
        "e"
      ],
      [
        "se",
        "en"
      ],
      [
        "we",
        "st"
      ],
      [
        "ve",
        "d"
      ],
      [
        "le",
        "g"
      ],
      [
        "le",
        "s"
      ],
      [
        "ar",
        "r"
      ],
      [
        "do",
        "llar"
      ],
      [
        "ho",
        "me"
      ],
      [
        "ge",
        "y"
      ],
      [
        "lo",
        "ve"
      ],
      [
        "te",
        "ctive"
      ],
      [
        "ce",
        "pt"
      ],
      [
        "thing",
        "s"
      ],
      [
        "im",
        "ag"
      ],
      [
        "de",
        "al"
      ],
      [
        "de",
        "tective"
      ],
      [
        "bo",
        "gey"
      ],
      [
        "pro",
        "ble"
      ],
      [
        "tr",
        "ust"
      ],
      [
        "ma",
        "in"
      ],
      [
        "ex",
        "pect"
      ],
      [
        "la",
        "st"
      ],
      [
        "wor",
        "d"
      ],
      [
        "will",
        "iam"
      ],
      [
        "per",
        "son"
      ],
      [
        "fo",
        "ol"
      ],
      [
        "ra",
        "id"
      ],
      [
        "friend",
        "s"
      ],
      [
        "com",
        "ing"
      ],
      [
        "min",
        "ute"
      ],
      [
        "than",
        "k"
      ],
      [
        "ser",
        "vice"
      ],
      [
        "camer",
        "a"
      ],
      [
        "ron",
        "g"
      ],
      [
        "fuck",
        "ing"
      ],
      [
        "af",
        "raid"
      ],
      [
        "pat",
        "rick"
      ],
      [
        "pl",
        "ay"
      ],
      [
        "ug",
        "ht"
      ],
      [
        "week",
        "s"
      ],
      [
        "cr",
        "ap"
      ],
      [
        "law",
        "yer"
      ],
      [
        "sin",
        "ce"
      ],
      [
        "veron",
        "a"
      ],
      [
        "hal",
        "f"
      ],
      [
        "mill",
        "ion"
      ],
      [
        "imag",
        "ine"
      ],
      [
        "a",
        "h"
      ],
      [
        "a",
        "se"
      ],
      [
        "a",
        "while"
      ],
      [
        "c",
        "u"
      ],
      [
        "c",
        "y"
      ],
      [
        "c",
        "ha"
      ],
      [
        "c",
        "ut"
      ],
      [
        "c",
        "lo"
      ],
      [
        "c",
        "tor"
      ],
      [
        "d",
        "i"
      ],
      [
        "e",
        "yes"
      ],
      [
        "e",
        "min"
      ],
      [
        "f",
        "un"
      ],
      [
        "g",
        "ig"
      ],
      [
        "h",
        "at"
      ],
      [
        "h",
        "ar"
      ],
      [
        "h",
        "ur"
      ],
      [
        "h",
        "und"
      ],
      [
        "i",
        "ca"
      ],
      [
        "j",
        "ack"
      ],
      [
        "k",
        "in"
      ],
      [
        "k",
        "en"
      ],
      [
        "m",
        "al"
      ],
      [
        "m",
        "us"
      ],
      [
        "o",
        "per"
      ],
      [
        "p",
        "s"
      ],
      [
        "p",
        "or"
      ],
      [
        "p",
        "ort"
      ],
      [
        "s",
        "ent"
      ],
      [
        "t",
        "ro"
      ],
      [
        "u",
        "ck"
      ],
      [
        "v",
        "ide"
      ],
      [
        "w",
        "in"
      ],
      [
        "th",
        "ose"
      ],
      [
        "in",
        "cl"
      ],
      [
        "an",
        "ge"
      ],
      [
        "er",
        "n"
      ],
      [
        "me",
        "et"
      ],
      [
        "is",
        "on"
      ],
      [
        "is",
        "to"
      ],
      [
        "is",
        "sed"
      ],
      [
        "is",
        "land"
      ],
      [
        "st",
        "rat"
      ],
      [
        "or",
        "s"
      ],
      [
        "we",
        "ar"
      ],
      [
        "le",
        "on"
      ],
      [
        "so",
        "l"
      ],
      [
        "so",
        "on"
      ],
      [
        "al",
        "on"
      ],
      [
        "ho",
        "mic"
      ],
      [
        "...",
        "?"
      ],
      [
        "li",
        "ve"
      ],
      [
        "for",
        "t"
      ],
      [
        "don",
        "e"
      ],
      [
        "ne",
        "y"
      ],
      [
        "lo",
        "st"
      ],
      [
        "was",
        "n"
      ],
      [
        "get",
        "s"
      ],
      [
        "ea",
        "st"
      ],
      [
        "ti",
        "c"
      ],
      [
        "ti",
        "al"
      ],
      [
        "want",
        "s"
      ],
      [
        "right",
        "s"
      ],
      [
        "po",
        "sit"
      ],
      [
        "de",
        "ad"
      ],
      [
        "say",
        "ing"
      ],
      [
        "any",
        "one"
      ],
      [
        "ma",
        "j"
      ],
      [
        "ma",
        "king"
      ],
      [
        "ple",
        "ase"
      ],
      [
        "ure",
        "d"
      ],
      [
        "ex",
        "c"
      ],
      [
        "ex",
        "act"
      ],
      [
        "sa",
        "w"
      ],
      [
        "would",
        "n"
      ],
      [
        "time",
        "s"
      ],
      [
        "kill",
        "ed"
      ],
      [
        "dis",
        "appoint"
      ],
      [
        "whi",
        "ch"
      ],
      [
        "listen",
        "ing"
      ],
      [
        "pat",
        "ron"
      ],
      [
        "lea",
        "ve"
      ],
      [
        "every",
        "one"
      ],
      [
        "year",
        "s"
      ],
      [
        "pl",
        "an"
      ],
      [
        "nor",
        "mal"
      ],
      [
        "pr",
        "of"
      ],
      [
        "cou",
        "ple"
      ],
      [
        "reme",
        "mber"
      ],
      [
        "swee",
        "t"
      ],
      [
        "differen",
        "t"
      ],
      [
        "decis",
        "ions"
      ],
      [
        "hig",
        "h"
      ],
      [
        "proble",
        "m"
      ],
      [
        "emin",
        "ence"
      ],
      [
        "hur",
        "t"
      ],
      [
        "hund",
        "red"
      ],
      [
        "vide",
        "o"
      ],
      [
        "homic",
        "ide"
      ],
      [
        "exact",
        "ly"
      ],
      [
        "b",
        "re"
      ],
      [
        "c",
        "at"
      ],
      [
        "c",
        "or"
      ],
      [
        "e",
        "u"
      ],
      [
        "f",
        "le"
      ],
      [
        "f",
        "ar"
      ],
      [
        "f",
        "ight"
      ],
      [
        "g",
        "le"
      ],
      [
        "i",
        "an"
      ],
      [
        "i",
        "ly"
      ],
      [
        "i",
        "ze"
      ],
      [
        "j",
        "es"
      ],
      [
        "k",
        "ick"
      ],
      [
        "l",
        "m"
      ],
      [
        "l",
        "un"
      ],
      [
        "l",
        "ud"
      ],
      [
        "m",
        "ine"
      ],
      [
        "n",
        "u"
      ],
      [
        "n",
        "ess"
      ],
      [
        "o",
        "w"
      ],
      [
        "p",
        "ri"
      ],
      [
        "p",
        "ick"
      ],
      [
        "p",
        "uss"
      ],
      [
        "p",
        "iss"
      ],
      [
        "s",
        "id"
      ],
      [
        "s",
        "lo"
      ],
      [
        "t",
        "t"
      ],
      [
        "v",
        "ak"
      ],
      [
        "w",
        "ig"
      ],
      [
        "w",
        "rong"
      ],
      [
        "th",
        "reat"
      ],
      [
        "in",
        "no"
      ],
      [
        "the",
        "s"
      ],
      [
        "ll",
        "ing"
      ],
      [
        "he",
        "d"
      ],
      [
        "se",
        "ven"
      ],
      [
        "we",
        "d"
      ],
      [
        "we",
        "l"
      ],
      [
        "ve",
        "red"
      ],
      [
        "be",
        "tr"
      ],
      [
        "ar",
        "ly"
      ],
      [
        "ar",
        "ound"
      ],
      [
        "as",
        "ure"
      ],
      [
        "ay",
        "ed"
      ],
      [
        "go",
        "ld"
      ],
      [
        "ho",
        "t"
      ],
      [
        "ho",
        "ld"
      ],
      [
        "li",
        "an"
      ],
      [
        "li",
        "ce"
      ],
      [
        "are",
        "d"
      ],
      [
        "for",
        "d"
      ],
      [
        "ge",
        "st"
      ],
      [
        "ch",
        "r"
      ],
      [
        "ch",
        "at"
      ],
      [
        "ad",
        "a"
      ],
      [
        "ad",
        "m"
      ],
      [
        "ad",
        "dress"
      ],
      [
        "ro",
        "d"
      ],
      [
        "co",
        "vered"
      ],
      [
        "ion",
        "al"
      ],
      [
        "ca",
        "p"
      ],
      [
        "some",
        "times"
      ],
      [
        "po",
        "se"
      ],
      [
        "po",
        "lice"
      ],
      [
        "bo",
        "th"
      ],
      [
        "gu",
        "e"
      ],
      [
        "gu",
        "es"
      ],
      [
        "tr",
        "ad"
      ],
      [
        "fe",
        "ct"
      ],
      [
        "him",
        "self"
      ],
      [
        "fa",
        "vor"
      ],
      [
        "con",
        "d"
      ],
      [
        "girl",
        "friend"
      ],
      [
        "ation",
        "s"
      ],
      [
        "fu",
        "ll"
      ],
      [
        "vi",
        "lian"
      ],
      [
        "kid",
        "s"
      ],
      [
        "kid",
        "ding"
      ],
      [
        "ye",
        "t"
      ],
      [
        "ci",
        "vilian"
      ],
      [
        "mis",
        "s"
      ],
      [
        "bu",
        "y"
      ],
      [
        "care",
        "er"
      ],
      [
        "dis",
        "cuss"
      ],
      [
        "pp",
        "ed"
      ],
      [
        "sc",
        "re"
      ],
      [
        "op",
        "in"
      ],
      [
        "tru",
        "e"
      ],
      [
        "ga",
        "ve"
      ],
      [
        "iz",
        "ing"
      ],
      [
        "gl",
        "ad"
      ],
      [
        "build",
        "ing"
      ],
      [
        "cig",
        "are"
      ],
      [
        "sm",
        "all"
      ],
      [
        "sus",
        "pect"
      ],
      [
        "quest",
        "ion"
      ],
      [
        "bus",
        "y"
      ],
      [
        "fir",
        "st"
      ],
      [
        "jud",
        "g"
      ],
      [
        "dollar",
        "s"
      ],
      [
        "gig",
        "gle"
      ],
      [
        "jack",
        "son"
      ],
      [
        "strat",
        "ford"
      ],
      [
        "exc",
        "use"
      ],
      [
        "jes",
        "us"
      ],
      [
        "lud",
        "wig"
      ],
      [
        "nu",
        "mber"
      ],
      [
        "slo",
        "vak"
      ],
      [
        "threat",
        "ened"
      ],
      [
        "inno",
        "cent"
      ],
      [
        "betr",
        "ayed"
      ],
      [
        "giggle",
        "puss"
      ],
      [
        "slovak",
        "ia"
      ],
      [
        "!",
        "!"
      ],
      [
        "b",
        "or"
      ],
      [
        "b",
        "li"
      ],
      [
        "b",
        "la"
      ],
      [
        "c",
        "re"
      ],
      [
        "c",
        "le"
      ],
      [
        "c",
        "es"
      ],
      [
        "d",
        "es"
      ],
      [
        "d",
        "am"
      ],
      [
        "f",
        "in"
      ],
      [
        "f",
        "ive"
      ],
      [
        "f",
        "ren"
      ],
      [
        "f",
        "ree"
      ],
      [
        "g",
        "i"
      ],
      [
        "g",
        "y"
      ],
      [
        "g",
        "re"
      ],
      [
        "h",
        "one"
      ],
      [
        "h",
        "uh"
      ],
      [
        "i",
        "x"
      ],
      [
        "i",
        "li"
      ],
      [
        "i",
        "ther"
      ],
      [
        "j",
        "a"
      ],
      [
        "k",
        "ed"
      ],
      [
        "m",
        "ig"
      ],
      [
        "n",
        "er"
      ],
      [
        "n",
        "ed"
      ],
      [
        "o",
        "leg"
      ],
      [
        "p",
        "ar"
      ],
      [
        "p",
        "ig"
      ],
      [
        "p",
        "un"
      ],
      [
        "p",
        "ass"
      ],
      [
        "p",
        "aren"
      ],
      [
        "p",
        "ict"
      ],
      [
        "p",
        "issed"
      ],
      [
        "p",
        "hone"
      ],
      [
        "r",
        "ation"
      ],
      [
        "s",
        "ar"
      ],
      [
        "s",
        "ur"
      ],
      [
        "s",
        "ix"
      ],
      [
        "t",
        "ent"
      ],
      [
        "w",
        "r"
      ],
      [
        "w",
        "ise"
      ],
      [
        "y",
        "a"
      ],
      [
        "th",
        "ree"
      ],
      [
        "re",
        "turn"
      ],
      [
        "at",
        "es"
      ],
      [
        "at",
        "ur"
      ],
      [
        "on",
        "s"
      ],
      [
        "er",
        "y"
      ],
      [
        "to",
        "ge"
      ],
      [
        "to",
        "day"
      ],
      [
        "st",
        "in"
      ],
      [
        "it",
        "s"
      ],
      [
        "en",
        "ing"
      ],
      [
        "en",
        "cy"
      ],
      [
        "se",
        "ss"
      ],
      [
        "ve",
        "s"
      ],
      [
        "be",
        "d"
      ],
      [
        "be",
        "ing"
      ],
      [
        "ar",
        "rest"
      ],
      [
        "as",
        "h"
      ],
      [
        "as",
        "sho"
      ],
      [
        "go",
        "es"
      ],
      [
        "do",
        "or"
      ],
      [
        "what",
        "ever"
      ],
      [
        "ha",
        "ir"
      ],
      [
        "ho",
        "pe"
      ],
      [
        "...",
        "!"
      ],
      [
        "li",
        "mb"
      ],
      [
        "your",
        "s"
      ],
      [
        "for",
        "give"
      ],
      [
        "my",
        "self"
      ],
      [
        "ch",
        "er"
      ],
      [
        "ch",
        "ange"
      ],
      [
        "ro",
        "pe"
      ],
      [
        "ck",
        "s"
      ],
      [
        "ver",
        "y"
      ],
      [
        "un",
        "ate"
      ],
      [
        "un",
        "less"
      ],
      [
        "un",
        "fort"
      ],
      [
        "co",
        "ver"
      ],
      [
        "co",
        "ol"
      ],
      [
        "can",
        "not"
      ],
      [
        "lo",
        "t"
      ],
      [
        "get",
        "ting"
      ],
      [
        "ri",
        "ed"
      ],
      [
        "ri",
        "ef"
      ],
      [
        "ther",
        "ap"
      ],
      [
        "im",
        "mig"
      ],
      [
        "po",
        "s"
      ],
      [
        "mo",
        "st"
      ],
      [
        "ta",
        "king"
      ],
      [
        "bo",
        "bad"
      ],
      [
        "any",
        "more"
      ],
      [
        "pro",
        "bab"
      ],
      [
        "sh",
        "ort"
      ],
      [
        "ill",
        "a"
      ],
      [
        "na",
        "me"
      ],
      [
        "ple",
        "asure"
      ],
      [
        "od",
        "y"
      ],
      [
        "ex",
        "p"
      ],
      [
        "ex",
        "per"
      ],
      [
        "sa",
        "me"
      ],
      [
        "wor",
        "ry"
      ],
      [
        "con",
        "side"
      ],
      [
        "were",
        "n"
      ],
      [
        "sp",
        "ain"
      ],
      [
        "cho",
        "ice"
      ],
      [
        "cho",
        "pped"
      ],
      [
        "wo",
        "men"
      ],
      [
        "wo",
        "man"
      ],
      [
        "ic",
        "ul"
      ],
      [
        "part",
        "ner"
      ],
      [
        "thoug",
        "h"
      ],
      [
        "ra",
        "w"
      ],
      [
        "fi",
        "lm"
      ],
      [
        "ask",
        "ing"
      ],
      [
        "ren",
        "ce"
      ],
      [
        "ment",
        "s"
      ],
      [
        "mar",
        "sha"
      ],
      [
        "ess",
        "ional"
      ],
      [
        "che",
        "z"
      ],
      [
        "mean",
        "s"
      ],
      [
        "gr",
        "and"
      ],
      [
        "ru",
        "g"
      ],
      [
        "jo",
        "b"
      ],
      [
        "ul",
        "ations"
      ],
      [
        "fuck",
        "in"
      ],
      [
        "bl",
        "ack"
      ],
      [
        "day",
        "s"
      ],
      [
        "est",
        "y"
      ],
      [
        "sc",
        "ene"
      ],
      [
        "wat",
        "er"
      ],
      [
        "run",
        "ning"
      ],
      [
        "vie",
        "w"
      ],
      [
        "law",
        "rence"
      ],
      [
        "mother",
        "s"
      ],
      [
        "pa",
        "id"
      ],
      [
        "em",
        "il"
      ],
      [
        "pu",
        "bli"
      ],
      [
        "happ",
        "ened"
      ],
      [
        "cri",
        "me"
      ],
      [
        "fam",
        "ous"
      ],
      [
        "mad",
        "e"
      ],
      [
        "serious",
        "ly"
      ],
      [
        "san",
        "chez"
      ],
      [
        "interest",
        "ed"
      ],
      [
        "eas",
        "y"
      ],
      [
        "fre",
        "sh"
      ],
      [
        "clo",
        "thes"
      ],
      [
        "east",
        "ern"
      ],
      [
        "posit",
        "ion"
      ],
      [
        "maj",
        "esty"
      ],
      [
        "disappoint",
        "ed"
      ],
      [
        "patron",
        "izing"
      ],
      [
        "prof",
        "essional"
      ],
      [
        "video",
        "camera"
      ],
      [
        "eu",
        "rope"
      ],
      [
        "tt",
        "es"
      ],
      [
        "wel",
        "come"
      ],
      [
        "cigare",
        "ttes"
      ],
      [
        "paren",
        "t"
      ],
      [
        "pict",
        "ure"
      ],
      [
        "sar",
        "ah"
      ],
      [
        "toge",
        "ther"
      ],
      [
        "assho",
        "le"
      ],
      [
        "unfort",
        "unate"
      ],
      [
        "therap",
        "y"
      ],
      [
        "immig",
        "ration"
      ],
      [
        "bobad",
        "illa"
      ],
      [
        "probab",
        "ly"
      ],
      [
        "exper",
        "i"
      ],
      [
        "conside",
        "red"
      ],
      [
        "marsha",
        "ll"
      ],
      [
        "publi",
        "c"
      ],
      [
        "a",
        "head"
      ],
      [
        "b",
        "al"
      ],
      [
        "b",
        "rief"
      ],
      [
        "c",
        "en"
      ],
      [
        "c",
        "us"
      ],
      [
        "c",
        "red"
      ],
      [
        "d",
        "en"
      ],
      [
        "d",
        "ang"
      ],
      [
        "d",
        "raw"
      ],
      [
        "d",
        "rug"
      ],
      [
        "e",
        "ll"
      ],
      [
        "e",
        "mb"
      ],
      [
        "e",
        "ating"
      ],
      [
        "f",
        "ron"
      ],
      [
        "h",
        "u"
      ],
      [
        "h",
        "on"
      ],
      [
        "h",
        "and"
      ],
      [
        "h",
        "ard"
      ],
      [
        "i",
        "er"
      ],
      [
        "i",
        "que"
      ],
      [
        "k",
        "s"
      ],
      [
        "k",
        "iss"
      ],
      [
        "l",
        "ight"
      ],
      [
        "l",
        "ine"
      ],
      [
        "m",
        "and"
      ],
      [
        "m",
        "id"
      ],
      [
        "n",
        "ice"
      ],
      [
        "o",
        "b"
      ],
      [
        "o",
        "y"
      ],
      [
        "o",
        "ce"
      ],
      [
        "p",
        "ho"
      ],
      [
        "p",
        "ant"
      ],
      [
        "p",
        "ur"
      ],
      [
        "s",
        "k"
      ],
      [
        "s",
        "pe"
      ],
      [
        "s",
        "ug"
      ],
      [
        "s",
        "atur"
      ],
      [
        "t",
        "ou"
      ],
      [
        "t",
        "in"
      ],
      [
        "t",
        "re"
      ],
      [
        "t",
        "ed"
      ],
      [
        "t",
        "all"
      ],
      [
        "t",
        "ab"
      ],
      [
        "t",
        "ure"
      ],
      [
        "u",
        "b"
      ],
      [
        "u",
        "ation"
      ],
      [
        "v",
        "ic"
      ],
      [
        "z",
        "on"
      ],
      [
        "ou",
        "p"
      ],
      [
        "th",
        "mus"
      ],
      [
        "in",
        "a"
      ],
      [
        "in",
        "ter"
      ],
      [
        "in",
        "ning"
      ],
      [
        "re",
        "as"
      ],
      [
        "re",
        "ct"
      ],
      [
        "re",
        "lat"
      ],
      [
        "re",
        "por"
      ],
      [
        "at",
        "ed"
      ],
      [
        "to",
        "dy"
      ],
      [
        "to",
        "mor"
      ],
      [
        "is",
        "thmus"
      ],
      [
        "ll",
        "ow"
      ],
      [
        "st",
        "it"
      ],
      [
        "st",
        "ation"
      ],
      [
        "st",
        "ree"
      ],
      [
        "it",
        "ion"
      ],
      [
        "be",
        "a"
      ],
      [
        "be",
        "st"
      ],
      [
        "le",
        "ar"
      ],
      [
        "ar",
        "k"
      ],
      [
        "as",
        "ia"
      ],
      [
        "do",
        "g"
      ],
      [
        "do",
        "ctor"
      ],
      [
        "id",
        "ed"
      ],
      [
        "id",
        "ence"
      ],
      [
        "so",
        "pho"
      ],
      [
        "al",
        "so"
      ],
      [
        "es",
        "c"
      ],
      [
        "es",
        "dr"
      ],
      [
        "ha",
        "ving"
      ],
      [
        "li",
        "ed"
      ],
      [
        "li",
        "kes"
      ],
      [
        "ke",
        "t"
      ],
      [
        "for",
        "m"
      ],
      [
        "for",
        "got"
      ],
      [
        "for",
        "ward"
      ],
      [
        "all",
        "s"
      ],
      [
        "ro",
        "w"
      ],
      [
        "un",
        "welcome"
      ],
      [
        "with",
        "out"
      ],
      [
        "co",
        "at"
      ],
      [
        "te",
        "m"
      ],
      [
        "but",
        "cher"
      ],
      [
        "some",
        "body"
      ],
      [
        "who",
        "re"
      ],
      [
        "im",
        "age"
      ],
      [
        "po",
        "p"
      ],
      [
        "po",
        "ten"
      ],
      [
        "ta",
        "ken"
      ],
      [
        "ind",
        "ies"
      ],
      [
        "art",
        "ment"
      ],
      [
        "am",
        "er"
      ],
      [
        "pro",
        "ve"
      ],
      [
        "tr",
        "a"
      ],
      [
        "fe",
        "w"
      ],
      [
        "fe",
        "el"
      ],
      [
        "sh",
        "i"
      ],
      [
        "na",
        "h"
      ],
      [
        "ex",
        "press"
      ],
      [
        "ex",
        "cept"
      ],
      [
        "fa",
        "ce"
      ],
      [
        "sa",
        "ve"
      ],
      [
        "con",
        "tro"
      ],
      [
        "con",
        "trad"
      ],
      [
        "ap",
        "h"
      ],
      [
        "ap",
        "artment"
      ],
      [
        "cho",
        "slovakia"
      ],
      [
        "see",
        "m"
      ],
      [
        "see",
        "ms"
      ],
      [
        "pre",
        "ci"
      ],
      [
        "per",
        "cent"
      ],
      [
        "ty",
        "pe"
      ],
      [
        "fo",
        "llow"
      ],
      [
        "ag",
        "ree"
      ],
      [
        "qu",
        "ite"
      ],
      [
        "part",
        "s"
      ],
      [
        "other",
        "wise"
      ],
      [
        "ra",
        "z"
      ],
      [
        "int",
        "end"
      ],
      [
        "fu",
        "l"
      ],
      [
        "mar",
        "che"
      ],
      [
        "mar",
        "ket"
      ],
      [
        "che",
        "ck"
      ],
      [
        "put",
        "rid"
      ],
      [
        "gr",
        "oup"
      ],
      [
        "start",
        "s"
      ],
      [
        "ci",
        "al"
      ],
      [
        "camer",
        "as"
      ],
      [
        "should",
        "a"
      ],
      [
        "sit",
        "uation"
      ],
      [
        "lea",
        "st"
      ],
      [
        "lea",
        "gues"
      ],
      [
        "dec",
        "ide"
      ],
      [
        "dec",
        "ided"
      ],
      [
        "every",
        "thing"
      ],
      [
        "wait",
        "ed"
      ],
      [
        "ish",
        "ing"
      ],
      [
        "ac",
        "cept"
      ],
      [
        "tor",
        "ture"
      ],
      [
        "cze",
        "choslovakia"
      ],
      [
        "sw",
        "ing"
      ],
      [
        "pla",
        "ce"
      ],
      [
        "blind",
        "ness"
      ],
      [
        "dif",
        "f"
      ],
      [
        "tri",
        "be"
      ],
      [
        "feren",
        "ce"
      ],
      [
        "long",
        "er"
      ],
      [
        "ef",
        "fect"
      ],
      [
        "pr",
        "ison"
      ],
      [
        "inte",
        "stin"
      ],
      [
        "low",
        "en"
      ],
      [
        "cou",
        "pla"
      ],
      [
        "rid",
        "icul"
      ],
      [
        "tru",
        "th"
      ],
      [
        "cer",
        "tain"
      ],
      [
        "coun",
        "try"
      ],
      [
        "lat",
        "er"
      ],
      [
        "happ",
        "ens"
      ],
      [
        "bro",
        "ther"
      ],
      [
        "ict",
        "ed"
      ],
      [
        "que",
        "en"
      ],
      [
        "burn",
        "ing"
      ],
      [
        "ev",
        "idence"
      ],
      [
        "vis",
        "it"
      ],
      [
        "vis",
        "ion"
      ],
      [
        "da",
        "ught"
      ],
      [
        "pin",
        "zon"
      ],
      [
        "arr",
        "ass"
      ],
      [
        "main",
        "land"
      ],
      [
        "word",
        "s"
      ],
      [
        "incl",
        "ud"
      ],
      [
        "island",
        "s"
      ],
      [
        "lun",
        "ch"
      ],
      [
        "adm",
        "ir"
      ],
      [
        "favor",
        "ite"
      ],
      [
        "scre",
        "wed"
      ],
      [
        "opin",
        "ion"
      ],
      [
        "bor",
        "ing"
      ],
      [
        "bla",
        "med"
      ],
      [
        "fren",
        "ch"
      ],
      [
        "ja",
        "il"
      ],
      [
        "pun",
        "ishing"
      ],
      [
        "tent",
        "ion"
      ],
      [
        "cus",
        "tody"
      ],
      [
        "dang",
        "er"
      ],
      [
        "emb",
        "arrass"
      ],
      [
        "fron",
        "t"
      ],
      [
        "oce",
        "an"
      ],
      [
        "pant",
        "ies"
      ],
      [
        "sug",
        "gest"
      ],
      [
        "satur",
        "day"
      ],
      [
        "inter",
        "view"
      ],
      [
        "relat",
        "ed"
      ],
      [
        "repor",
        "ter"
      ],
      [
        "tomor",
        "row"
      ],
      [
        "stree",
        "t"
      ],
      [
        "sopho",
        "more"
      ],
      [
        "esdr",
        "as"
      ],
      [
        "poten",
        "tial"
      ],
      [
        "contro",
        "l"
      ],
      [
        "contrad",
        "icted"
      ],
      [
        "marche",
        "na"
      ],
      [
        "ridicul",
        "ous"
      ],
      [
        "'",
        "."
      ],
      [
        ".",
        "?"
      ],
      [
        "3",
        "r"
      ],
      [
        "5",
        "0"
      ],
      [
        "6",
        "3r"
      ],
      [
        "7",
        "50"
      ],
      [
        "?",
        "?"
      ],
      [
        "a",
        "th"
      ],
      [
        "a",
        "ch"
      ],
      [
        "b",
        "an"
      ],
      [
        "b",
        "on"
      ],
      [
        "b",
        "and"
      ],
      [
        "b",
        "by"
      ],
      [
        "b",
        "ra"
      ],
      [
        "b",
        "low"
      ],
      [
        "b",
        "bed"
      ],
      [
        "b",
        "alls"
      ],
      [
        "c",
        "al"
      ],
      [
        "c",
        "ro"
      ],
      [
        "c",
        "ry"
      ],
      [
        "c",
        "ru"
      ],
      [
        "c",
        "reat"
      ],
      [
        "c",
        "ash"
      ],
      [
        "c",
        "ulations"
      ],
      [
        "d",
        "ut"
      ],
      [
        "d",
        "ry"
      ],
      [
        "d",
        "il"
      ],
      [
        "d",
        "ance"
      ],
      [
        "d",
        "ates"
      ],
      [
        "d",
        "aph"
      ],
      [
        "e",
        "ight"
      ],
      [
        "f",
        "ig"
      ],
      [
        "f",
        "end"
      ],
      [
        "f",
        "lat"
      ],
      [
        "g",
        "g"
      ],
      [
        "g",
        "er"
      ],
      [
        "g",
        "ay"
      ],
      [
        "g",
        "ain"
      ],
      [
        "g",
        "inning"
      ],
      [
        "h",
        "it"
      ],
      [
        "h",
        "orse"
      ],
      [
        "j",
        "our"
      ],
      [
        "k",
        "a"
      ],
      [
        "k",
        "or"
      ],
      [
        "l",
        "u"
      ],
      [
        "l",
        "er"
      ],
      [
        "m",
        "ut"
      ],
      [
        "n",
        "on"
      ],
      [
        "n",
        "ity"
      ],
      [
        "o",
        "lo"
      ],
      [
        "p",
        "al"
      ],
      [
        "p",
        "her"
      ],
      [
        "p",
        "ie"
      ],
      [
        "p",
        "ra"
      ],
      [
        "r",
        "is"
      ],
      [
        "r",
        "or"
      ],
      [
        "r",
        "uss"
      ],
      [
        "s",
        "we"
      ],
      [
        "s",
        "ig"
      ],
      [
        "s",
        "ir"
      ],
      [
        "s",
        "ation"
      ],
      [
        "s",
        "ick"
      ],
      [
        "s",
        "pect"
      ],
      [
        "s",
        "wear"
      ],
      [
        "t",
        "v"
      ],
      [
        "t",
        "it"
      ],
      [
        "t",
        "went"
      ],
      [
        "t",
        "ough"
      ],
      [
        "u",
        "a"
      ],
      [
        "u",
        "e"
      ],
      [
        "v",
        "y"
      ],
      [
        "v",
        "od"
      ],
      [
        "v",
        "ag"
      ],
      [
        "v",
        "ity"
      ],
      [
        "v",
        "om"
      ],
      [
        "w",
        "s"
      ],
      [
        "w",
        "ish"
      ],
      [
        "w",
        "arr"
      ],
      [
        "ou",
        "th"
      ],
      [
        "in",
        "v"
      ],
      [
        "in",
        "ing"
      ],
      [
        "in",
        "ation"
      ],
      [
        "in",
        "side"
      ],
      [
        "in",
        "form"
      ],
      [
        "in",
        "coat"
      ],
      [
        "re",
        "ly"
      ],
      [
        "re",
        "tri"
      ],
      [
        "re",
        "port"
      ],
      [
        "an",
        "ed"
      ],
      [
        "an",
        "ada"
      ],
      [
        "at",
        "or"
      ],
      [
        "at",
        "tor"
      ],
      [
        "at",
        "tem"
      ],
      [
        "to",
        "tal"
      ],
      [
        "me",
        "t"
      ],
      [
        "ll",
        "y"
      ],
      [
        "ll",
        "ency"
      ],
      [
        "he",
        "a"
      ],
      [
        "st",
        "ab"
      ],
      [
        "st",
        "ri"
      ],
      [
        "se",
        "a"
      ],
      [
        "se",
        "nor"
      ],
      [
        "se",
        "cond"
      ],
      [
        "be",
        "at"
      ],
      [
        "be",
        "er"
      ],
      [
        "be",
        "red"
      ],
      [
        "be",
        "come"
      ],
      [
        "be",
        "ginning"
      ],
      [
        "be",
        "lly"
      ],
      [
        "le",
        "vision"
      ],
      [
        "ar",
        "gue"
      ],
      [
        "ar",
        "ina"
      ],
      [
        "go",
        "in"
      ],
      [
        "go",
        "ti"
      ],
      [
        "do",
        "cu"
      ],
      [
        "ed",
        "y"
      ],
      [
        "id",
        "s"
      ],
      [
        "id",
        "ea"
      ],
      [
        "li",
        "ver"
      ],
      [
        "out",
        "ta"
      ],
      [
        "for",
        "ty"
      ],
      [
        "my",
        "st"
      ],
      [
        "ut",
        "if"
      ],
      [
        "not",
        "ic"
      ],
      [
        "ch",
        "ick"
      ],
      [
        "ch",
        "ild"
      ],
      [
        "ch",
        "ance"
      ],
      [
        "ro",
        "of"
      ],
      [
        "ver",
        "sation"
      ],
      [
        "ne",
        "ither"
      ],
      [
        "ne",
        "goti"
      ],
      [
        "know",
        "n"
      ],
      [
        "un",
        "k"
      ],
      [
        "un",
        "ique"
      ],
      [
        "ab",
        "o"
      ],
      [
        "ab",
        "used"
      ],
      [
        "ab",
        "sol"
      ],
      [
        "lo",
        "re"
      ],
      [
        "lo",
        "ss"
      ],
      [
        "lo",
        "ids"
      ],
      [
        "her",
        "o"
      ],
      [
        "te",
        "en"
      ],
      [
        "te",
        "levision"
      ],
      [
        "ce",
        "llency"
      ],
      [
        "up",
        "on"
      ],
      [
        "up",
        "set"
      ],
      [
        "some",
        "thin"
      ],
      [
        "us",
        "ually"
      ],
      [
        "de",
        "z"
      ],
      [
        "ter",
        "s"
      ],
      [
        "ter",
        "ror"
      ],
      [
        "ct",
        "ed"
      ],
      [
        "mo",
        "m"
      ],
      [
        "mo",
        "ti"
      ],
      [
        "mo",
        "vi"
      ],
      [
        "mo",
        "ody"
      ],
      [
        "pe",
        "are"
      ],
      [
        "ta",
        "ct"
      ],
      [
        "ta",
        "kes"
      ],
      [
        "bo",
        "bby"
      ],
      [
        "am",
        "a"
      ],
      [
        "am",
        "bit"
      ],
      [
        "use",
        "ful"
      ],
      [
        "pro",
        "gre"
      ],
      [
        "pro",
        "stit"
      ],
      [
        "ma",
        "kes"
      ],
      [
        "ack",
        "ed"
      ],
      [
        "tell",
        "in"
      ],
      [
        "tell",
        "ing"
      ],
      [
        "fe",
        "ty"
      ],
      [
        "ent",
        "s"
      ],
      [
        "men",
        "dez"
      ],
      [
        "ex",
        "cellency"
      ],
      [
        "oug",
        "ht"
      ],
      [
        "fa",
        "ir"
      ],
      [
        "sa",
        "il"
      ],
      [
        "sa",
        "vag"
      ],
      [
        "sa",
        "fety"
      ],
      [
        "con",
        "ference"
      ],
      [
        "con",
        "versation"
      ],
      [
        "con",
        "tact"
      ],
      [
        "ap",
        "preci"
      ],
      [
        "sp",
        "er"
      ],
      [
        "sp",
        "it"
      ],
      [
        "sp",
        "end"
      ],
      [
        "whe",
        "ther"
      ],
      [
        "cho",
        "ic"
      ],
      [
        "fo",
        "od"
      ],
      [
        "qu",
        "ad"
      ],
      [
        "qu",
        "ick"
      ],
      [
        "ic",
        "ine"
      ],
      [
        "read",
        "ing"
      ],
      [
        "need",
        "s"
      ],
      [
        "ra",
        "incoat"
      ],
      [
        "had",
        "n"
      ],
      [
        "give",
        "s"
      ],
      [
        "com",
        "p"
      ],
      [
        "com",
        "pl"
      ],
      [
        "min",
        "al"
      ],
      [
        "kill",
        "ing"
      ],
      [
        "ask",
        "ed"
      ],
      [
        "new",
        "s"
      ],
      [
        "ren",
        "der"
      ],
      [
        "sure",
        "ly"
      ],
      [
        "che",
        "d"
      ],
      [
        "che",
        "s"
      ],
      [
        "gr",
        "in"
      ],
      [
        "gr",
        "ab"
      ],
      [
        "gr",
        "anada"
      ],
      [
        "mb",
        "ers"
      ],
      [
        "ru",
        "th"
      ],
      [
        "wa",
        "ste"
      ],
      [
        "won",
        "der"
      ],
      [
        "our",
        "s"
      ],
      [
        "el",
        "bo"
      ],
      [
        "mis",
        "sed"
      ],
      [
        "sho",
        "es"
      ],
      [
        "ul",
        "t"
      ],
      [
        "ul",
        "ar"
      ],
      [
        "stand",
        "in"
      ],
      [
        "bu",
        "cks"
      ],
      [
        "fuck",
        "ed"
      ],
      [
        "mon",
        "th"
      ],
      [
        "lea",
        "ving"
      ],
      [
        "year",
        "book"
      ],
      [
        "understand",
        "s"
      ],
      [
        "ac",
        "cor"
      ],
      [
        "ac",
        "compl"
      ],
      [
        "cl",
        "ub"
      ],
      [
        "kat",
        "arina"
      ],
      [
        "turn",
        "ing"
      ],
      [
        "med",
        "icine"
      ],
      [
        "believe",
        "d"
      ],
      [
        "car",
        "ry"
      ],
      [
        "op",
        "en"
      ],
      [
        "sto",
        "p"
      ],
      [
        "tri",
        "ed"
      ],
      [
        "kes",
        "peare"
      ],
      [
        "dress",
        "er"
      ],
      [
        "pa",
        "st"
      ],
      [
        "pa",
        "ir"
      ],
      [
        "watch",
        "ing"
      ],
      [
        "ba",
        "sed"
      ],
      [
        "bit",
        "ch"
      ],
      [
        "sha",
        "kespeare"
      ],
      [
        "ang",
        "le"
      ],
      [
        "appoint",
        "ment"
      ],
      [
        "cri",
        "minal"
      ],
      [
        "fam",
        "ily"
      ],
      [
        "mad",
        "ison"
      ],
      [
        "mic",
        "ro"
      ],
      [
        "differen",
        "ce"
      ],
      [
        "blo",
        "od"
      ],
      [
        "cig",
        "ar"
      ],
      [
        "mm",
        "ing"
      ],
      [
        "sm",
        "ok"
      ],
      [
        "state",
        "ment"
      ],
      [
        "ens",
        "ive"
      ],
      [
        "again",
        "st"
      ],
      [
        "bar",
        "re"
      ],
      [
        "bar",
        "gain"
      ],
      [
        "eas",
        "ier"
      ],
      [
        "fre",
        "ak"
      ],
      [
        "ste",
        "in"
      ],
      [
        "play",
        "ing"
      ],
      [
        "hat",
        "ed"
      ],
      [
        "har",
        "ry"
      ],
      [
        "por",
        "n"
      ],
      [
        "tro",
        "oper"
      ],
      [
        "isto",
        "pher"
      ],
      [
        "wear",
        "ing"
      ],
      [
        "alon",
        "so"
      ],
      [
        "bre",
        "ak"
      ],
      [
        "cat",
        "ch"
      ],
      [
        "cor",
        "rect"
      ],
      [
        "fle",
        "mming"
      ],
      [
        "hold",
        "ing"
      ],
      [
        "chr",
        "ist"
      ],
      [
        "chr",
        "istopher"
      ],
      [
        "cap",
        "able"
      ],
      [
        "cap",
        "tain"
      ],
      [
        "cond",
        "ition"
      ],
      [
        "judg",
        "ment"
      ],
      [
        "cre",
        "ate"
      ],
      [
        "cle",
        "aned"
      ],
      [
        "dam",
        "n"
      ],
      [
        "gi",
        "ving"
      ],
      [
        "pass",
        "ion"
      ],
      [
        "sur",
        "render"
      ],
      [
        "sess",
        "ions"
      ],
      [
        "exp",
        "ensive"
      ],
      [
        "fresh",
        "man"
      ],
      [
        "parent",
        "s"
      ],
      [
        "experi",
        "en"
      ],
      [
        "hon",
        "ors"
      ],
      [
        "pur",
        "pose"
      ],
      [
        "sk",
        "unk"
      ],
      [
        "tou",
        "ch"
      ],
      [
        "tab",
        "loids"
      ],
      [
        "bea",
        "utif"
      ],
      [
        "lear",
        "n"
      ],
      [
        "esc",
        "ort"
      ],
      [
        "pop",
        "ular"
      ],
      [
        "shi",
        "ps"
      ],
      [
        "lowen",
        "stein"
      ],
      [
        "brother",
        "s"
      ],
      [
        "daught",
        "ers"
      ],
      [
        "admir",
        "al"
      ],
      [
        "63r",
        "d"
      ],
      [
        "cal",
        "culations"
      ],
      [
        "cro",
        "ss"
      ],
      [
        "creat",
        "ed"
      ],
      [
        "dut",
        "y"
      ],
      [
        "daph",
        "ne"
      ],
      [
        "fig",
        "ured"
      ],
      [
        "jour",
        "ney"
      ],
      [
        "russ",
        "ian"
      ],
      [
        "swe",
        "ating"
      ],
      [
        "twent",
        "y"
      ],
      [
        "vod",
        "ka"
      ],
      [
        "vom",
        "it"
      ],
      [
        "warr",
        "ant"
      ],
      [
        "inform",
        "ation"
      ],
      [
        "attor",
        "ney"
      ],
      [
        "attem",
        "pt"
      ],
      [
        "notic",
        "ed"
      ],
      [
        "movi",
        "es"
      ],
      [
        "progre",
        "ss"
      ],
      [
        "prostit",
        "ute"
      ],
      [
        "savag",
        "ery"
      ],
      [
        "appreci",
        "ate"
      ],
      [
        "choic",
        "es"
      ],
      [
        "raincoat",
        "s"
      ],
      [
        "accor",
        "ding"
      ],
      [
        "accompl",
        "ish"
      ],
      [
        "beautif",
        "ul"
      ],
      [
        "!",
        "'"
      ],
      [
        "!",
        "?"
      ],
      [
        "0",
        "0"
      ],
      [
        "1",
        "0"
      ],
      [
        "2",
        "10"
      ],
      [
        "9",
        "th"
      ],
      [
        "?",
        "'"
      ],
      [
        "a",
        "med"
      ],
      [
        "b",
        "en"
      ],
      [
        "b",
        "un"
      ],
      [
        "b",
        "ly"
      ],
      [
        "b",
        "ir"
      ],
      [
        "b",
        "end"
      ],
      [
        "b",
        "ent"
      ],
      [
        "b",
        "ag"
      ],
      [
        "b",
        "red"
      ],
      [
        "b",
        "lon"
      ],
      [
        "b",
        "ones"
      ],
      [
        "c",
        "c"
      ],
      [
        "c",
        "of"
      ],
      [
        "c",
        "li"
      ],
      [
        "c",
        "ous"
      ],
      [
        "c",
        "our"
      ],
      [
        "c",
        "used"
      ],
      [
        "c",
        "ise"
      ],
      [
        "c",
        "limb"
      ],
      [
        "c",
        "raz"
      ],
      [
        "d",
        "le"
      ],
      [
        "d",
        "ies"
      ],
      [
        "d",
        "run"
      ],
      [
        "d",
        "uck"
      ],
      [
        "d",
        "ark"
      ],
      [
        "e",
        "en"
      ],
      [
        "e",
        "le"
      ],
      [
        "e",
        "ar"
      ],
      [
        "e",
        "ter"
      ],
      [
        "e",
        "mo"
      ],
      [
        "e",
        "mer"
      ],
      [
        "e",
        "try"
      ],
      [
        "e",
        "em"
      ],
      [
        "e",
        "arly"
      ],
      [
        "e",
        "ither"
      ],
      [
        "f",
        "id"
      ],
      [
        "f",
        "li"
      ],
      [
        "f",
        "all"
      ],
      [
        "f",
        "if"
      ],
      [
        "f",
        "right"
      ],
      [
        "f",
        "ol"
      ],
      [
        "f",
        "ru"
      ],
      [
        "f",
        "our"
      ],
      [
        "f",
        "rid"
      ],
      [
        "f",
        "ern"
      ],
      [
        "f",
        "lu"
      ],
      [
        "g",
        "ing"
      ],
      [
        "g",
        "im"
      ],
      [
        "g",
        "ent"
      ],
      [
        "g",
        "ag"
      ],
      [
        "g",
        "ene"
      ],
      [
        "g",
        "ary"
      ],
      [
        "g",
        "ency"
      ],
      [
        "h",
        "y"
      ],
      [
        "h",
        "ou"
      ],
      [
        "h",
        "id"
      ],
      [
        "h",
        "un"
      ],
      [
        "h",
        "ide"
      ],
      [
        "h",
        "ang"
      ],
      [
        "h",
        "mm"
      ],
      [
        "h",
        "um"
      ],
      [
        "i",
        "th"
      ],
      [
        "i",
        "al"
      ],
      [
        "i",
        "can"
      ],
      [
        "i",
        "ate"
      ],
      [
        "i",
        "la"
      ],
      [
        "i",
        "red"
      ],
      [
        "i",
        "able"
      ],
      [
        "i",
        "res"
      ],
      [
        "i",
        "vity"
      ],
      [
        "i",
        "bly"
      ],
      [
        "j",
        "or"
      ],
      [
        "j",
        "ones"
      ],
      [
        "j",
        "ured"
      ],
      [
        "j",
        "ared"
      ],
      [
        "k",
        "m"
      ],
      [
        "k",
        "it"
      ],
      [
        "k",
        "ne"
      ],
      [
        "k",
        "ers"
      ],
      [
        "k",
        "issed"
      ],
      [
        "l",
        "s"
      ],
      [
        "l",
        "an"
      ],
      [
        "l",
        "id"
      ],
      [
        "l",
        "ate"
      ],
      [
        "l",
        "ack"
      ],
      [
        "l",
        "ity"
      ],
      [
        "l",
        "ish"
      ],
      [
        "l",
        "ens"
      ],
      [
        "l",
        "uck"
      ],
      [
        "m",
        "p"
      ],
      [
        "m",
        "me"
      ],
      [
        "m",
        "ug"
      ],
      [
        "m",
        "ild"
      ],
      [
        "n",
        "y"
      ],
      [
        "n",
        "at"
      ],
      [
        "n",
        "ay"
      ],
      [
        "n",
        "um"
      ],
      [
        "o",
        "st"
      ],
      [
        "o",
        "pp"
      ],
      [
        "o",
        "ily"
      ],
      [
        "o",
        "wed"
      ],
      [
        "o",
        "cc"
      ],
      [
        "p",
        "an"
      ],
      [
        "p",
        "on"
      ],
      [
        "p",
        "to"
      ],
      [
        "p",
        "ed"
      ],
      [
        "p",
        "es"
      ],
      [
        "p",
        "ad"
      ],
      [
        "p",
        "ly"
      ],
      [
        "p",
        "ir"
      ],
      [
        "p",
        "end"
      ],
      [
        "p",
        "ure"
      ],
      [
        "p",
        "ine"
      ],
      [
        "p",
        "ty"
      ],
      [
        "p",
        "age"
      ],
      [
        "p",
        "ron"
      ],
      [
        "r",
        "ing"
      ],
      [
        "r",
        "it"
      ],
      [
        "r",
        "and"
      ],
      [
        "r",
        "out"
      ],
      [
        "r",
        "are"
      ],
      [
        "r",
        "ant"
      ],
      [
        "r",
        "us"
      ],
      [
        "r",
        "ide"
      ],
      [
        "r",
        "ough"
      ],
      [
        "s",
        "y"
      ],
      [
        "s",
        "me"
      ],
      [
        "s",
        "ight"
      ],
      [
        "s",
        "un"
      ],
      [
        "s",
        "co"
      ],
      [
        "s",
        "can"
      ],
      [
        "s",
        "im"
      ],
      [
        "s",
        "mo"
      ],
      [
        "s",
        "ma"
      ],
      [
        "s",
        "wo"
      ],
      [
        "s",
        "kid"
      ],
      [
        "s",
        "ud"
      ],
      [
        "s",
        "ound"
      ],
      [
        "s",
        "low"
      ],
      [
        "s",
        "um"
      ],
      [
        "s",
        "uck"
      ],
      [
        "s",
        "alon"
      ],
      [
        "s",
        "light"
      ],
      [
        "s",
        "outh"
      ],
      [
        "t",
        "w"
      ],
      [
        "t",
        "ch"
      ],
      [
        "t",
        "ion"
      ],
      [
        "t",
        "end"
      ],
      [
        "t",
        "ree"
      ],
      [
        "u",
        "al"
      ],
      [
        "u",
        "ce"
      ],
      [
        "v",
        "in"
      ],
      [
        "v",
        "ant"
      ],
      [
        "v",
        "oy"
      ],
      [
        "w",
        "re"
      ],
      [
        "w",
        "it"
      ],
      [
        "w",
        "ar"
      ],
      [
        "w",
        "al"
      ],
      [
        "w",
        "ur"
      ],
      [
        "w",
        "ide"
      ],
      [
        "w",
        "rest"
      ],
      [
        "w",
        "ers"
      ],
      [
        "w",
        "boy"
      ],
      [
        "x",
        "im"
      ],
      [
        "x",
        "ica"
      ],
      [
        "y",
        "s"
      ],
      [
        "y",
        "cho"
      ],
      [
        "z",
        "y"
      ],
      [
        "z",
        "z"
      ],
      [
        "z",
        "ing"
      ],
      [
        "z",
        "ine"
      ],
      [
        "th",
        "y"
      ],
      [
        "th",
        "ro"
      ],
      [
        "th",
        "ri"
      ],
      [
        "th",
        "ol"
      ],
      [
        "th",
        "rough"
      ],
      [
        "in",
        "s"
      ],
      [
        "in",
        "y"
      ],
      [
        "in",
        "st"
      ],
      [
        "in",
        "ve"
      ],
      [
        "in",
        "ti"
      ],
      [
        "in",
        "san"
      ],
      [
        "in",
        "cred"
      ],
      [
        "in",
        "capable"
      ],
      [
        "in",
        "jured"
      ],
      [
        "re",
        "w"
      ],
      [
        "re",
        "pe"
      ],
      [
        "re",
        "new"
      ],
      [
        "re",
        "put"
      ],
      [
        "re",
        "mind"
      ],
      [
        "re",
        "pla"
      ],
      [
        "re",
        "cent"
      ],
      [
        "re",
        "public"
      ],
      [
        "an",
        "ch"
      ],
      [
        "at",
        "ured"
      ],
      [
        "at",
        "tention"
      ],
      [
        "at",
        "wur"
      ],
      [
        "on",
        "ce"
      ],
      [
        "the",
        "art"
      ],
      [
        "er",
        "t"
      ],
      [
        "er",
        "oy"
      ],
      [
        "er",
        "ath"
      ],
      [
        "to",
        "wn"
      ],
      [
        "to",
        "scan"
      ],
      [
        "to",
        "wers"
      ],
      [
        "me",
        "us"
      ],
      [
        "me",
        "sc"
      ],
      [
        "me",
        "rely"
      ],
      [
        "is",
        "ed"
      ],
      [
        "is",
        "hed"
      ],
      [
        "ll",
        "ea"
      ],
      [
        "no",
        "re"
      ],
      [
        "no",
        "pe"
      ],
      [
        "no",
        "thin"
      ],
      [
        "no",
        "body"
      ],
      [
        "he",
        "ld"
      ],
      [
        "st",
        "ig"
      ],
      [
        "st",
        "ro"
      ],
      [
        "st",
        "un"
      ],
      [
        "st",
        "ra"
      ],
      [
        "st",
        "ick"
      ],
      [
        "st",
        "ep"
      ],
      [
        "st",
        "rong"
      ],
      [
        "st",
        "ates"
      ],
      [
        "it",
        "ing"
      ],
      [
        "wh",
        "acked"
      ],
      [
        "or",
        "de"
      ],
      [
        "or",
        "ter"
      ],
      [
        "or",
        "gy"
      ],
      [
        "en",
        "se"
      ],
      [
        "en",
        "ter"
      ],
      [
        "en",
        "ci"
      ],
      [
        "en",
        "gl"
      ],
      [
        "en",
        "tial"
      ],
      [
        "se",
        "ar"
      ],
      [
        "se",
        "es"
      ],
      [
        "se",
        "ver"
      ],
      [
        "se",
        "am"
      ],
      [
        "se",
        "iz"
      ],
      [
        "we",
        "ight"
      ],
      [
        "ve",
        "lling"
      ],
      [
        "be",
        "li"
      ],
      [
        "be",
        "ep"
      ],
      [
        "be",
        "coming"
      ],
      [
        "be",
        "sid"
      ],
      [
        "le",
        "to"
      ],
      [
        "le",
        "ad"
      ],
      [
        "le",
        "man"
      ],
      [
        "le",
        "br"
      ],
      [
        "le",
        "mme"
      ],
      [
        "le",
        "meus"
      ],
      [
        "ar",
        "chie"
      ],
      [
        "ar",
        "ies"
      ],
      [
        "ar",
        "isto"
      ],
      [
        "ar",
        "tic"
      ],
      [
        "as",
        "sure"
      ],
      [
        "as",
        "hed"
      ],
      [
        "and",
        "o"
      ],
      [
        "do",
        "m"
      ],
      [
        "do",
        "in"
      ],
      [
        "ed",
        "ward"
      ],
      [
        "of",
        "ten"
      ],
      [
        "what",
        "so"
      ],
      [
        "so",
        "ld"
      ],
      [
        "so",
        "ck"
      ],
      [
        "so",
        "cial"
      ],
      [
        "al",
        "ive"
      ],
      [
        "al",
        "ous"
      ],
      [
        "al",
        "cat"
      ],
      [
        "al",
        "ert"
      ],
      [
        "ha",
        "ck"
      ],
      [
        "ha",
        "ired"
      ],
      [
        "ig",
        "nor"
      ],
      [
        "ig",
        "nore"
      ],
      [
        "ho",
        "te"
      ],
      [
        "ho",
        "over"
      ],
      [
        "ho",
        "lid"
      ],
      [
        "ho",
        "pes"
      ],
      [
        "li",
        "ked"
      ],
      [
        "ke",
        "ys"
      ],
      [
        "out",
        "num"
      ],
      [
        "for",
        "ce"
      ],
      [
        "ut",
        "ed"
      ],
      [
        "ut",
        "es"
      ],
      [
        "ut",
        "ion"
      ],
      [
        "ut",
        "ap"
      ],
      [
        "ad",
        "ed"
      ],
      [
        "ad",
        "way"
      ],
      [
        "ad",
        "vice"
      ],
      [
        "all",
        "ow"
      ],
      [
        "all",
        "owed"
      ],
      [
        "ro",
        "ck"
      ],
      [
        "ro",
        "man"
      ],
      [
        "ro",
        "om"
      ],
      [
        "ck",
        "ed"
      ],
      [
        "ver",
        "ge"
      ],
      [
        "ne",
        "ar"
      ],
      [
        "ne",
        "arly"
      ],
      [
        "un",
        "ci"
      ],
      [
        "un",
        "ity"
      ],
      [
        "un",
        "sol"
      ],
      [
        "un",
        "cle"
      ],
      [
        "un",
        "cross"
      ],
      [
        "co",
        "in"
      ],
      [
        "co",
        "st"
      ],
      [
        "co",
        "oper"
      ],
      [
        "co",
        "ws"
      ],
      [
        "co",
        "llea"
      ],
      [
        "can",
        "cer"
      ],
      [
        "can",
        "ary"
      ],
      [
        "can",
        "ada"
      ],
      [
        "lo",
        "ser"
      ],
      [
        "lo",
        "cked"
      ],
      [
        "ca",
        "ught"
      ],
      [
        "te",
        "st"
      ],
      [
        "te",
        "ct"
      ],
      [
        "te",
        "qu"
      ],
      [
        "te",
        "ach"
      ],
      [
        "ce",
        "lebr"
      ],
      [
        "if",
        "iable"
      ],
      [
        "but",
        "ton"
      ],
      [
        "but",
        "thol"
      ],
      [
        "up",
        "bring"
      ],
      [
        "get",
        "tin"
      ],
      [
        "just",
        "ifiable"
      ],
      [
        "ri",
        "es"
      ],
      [
        "ri",
        "ag"
      ],
      [
        "ri",
        "ctor"
      ],
      [
        "ti",
        "est"
      ],
      [
        "ti",
        "ms"
      ],
      [
        "ther",
        "ing"
      ],
      [
        "us",
        "age"
      ],
      [
        "us",
        "ivity"
      ],
      [
        "who",
        "m"
      ],
      [
        "who",
        "se"
      ],
      [
        "im",
        "pre"
      ],
      [
        "im",
        "med"
      ],
      [
        "po",
        "ss"
      ],
      [
        "po",
        "ol"
      ],
      [
        "po",
        "land"
      ],
      [
        "po",
        "etry"
      ],
      [
        "po",
        "lish"
      ],
      [
        "de",
        "l"
      ],
      [
        "de",
        "ar"
      ],
      [
        "de",
        "part"
      ],
      [
        "de",
        "put"
      ],
      [
        "de",
        "gr"
      ],
      [
        "de",
        "pri"
      ],
      [
        "de",
        "tention"
      ],
      [
        "ct",
        "ly"
      ],
      [
        "mo",
        "xica"
      ],
      [
        "pe",
        "as"
      ],
      [
        "pe",
        "ared"
      ],
      [
        "pe",
        "gg"
      ],
      [
        "ta",
        "min"
      ],
      [
        "ta",
        "ught"
      ],
      [
        "ta",
        "kin"
      ],
      [
        "bo",
        "dies"
      ],
      [
        "bo",
        "thering"
      ],
      [
        "ind",
        "ian"
      ],
      [
        "ind",
        "uce"
      ],
      [
        "ie",
        "ld"
      ],
      [
        "gu",
        "age"
      ],
      [
        "end",
        "less"
      ],
      [
        "think",
        "s"
      ],
      [
        "any",
        "way"
      ],
      [
        "any",
        "body"
      ],
      [
        "pro",
        "ven"
      ],
      [
        "pro",
        "per"
      ],
      [
        "pro",
        "pose"
      ],
      [
        "pro",
        "pos"
      ],
      [
        "pro",
        "xim"
      ],
      [
        "pro",
        "tect"
      ],
      [
        "tr",
        "ack"
      ],
      [
        "tr",
        "ag"
      ],
      [
        "tr",
        "ash"
      ],
      [
        "tr",
        "ashed"
      ],
      [
        "ma",
        "le"
      ],
      [
        "ma",
        "ga"
      ],
      [
        "fe",
        "e"
      ],
      [
        "fe",
        "ar"
      ],
      [
        "fe",
        "lon"
      ],
      [
        "fe",
        "min"
      ],
      [
        "fe",
        "atured"
      ],
      [
        "sh",
        "orter"
      ],
      [
        "sh",
        "ield"
      ],
      [
        "ur",
        "y"
      ],
      [
        "ur",
        "ing"
      ],
      [
        "ur",
        "vy"
      ],
      [
        "got",
        "ta"
      ],
      [
        "got",
        "ten"
      ],
      [
        "na",
        "ked"
      ],
      [
        "men",
        "d"
      ],
      [
        "ex",
        "cl"
      ],
      [
        "ex",
        "posed"
      ],
      [
        "ex",
        "tre"
      ],
      [
        "ex",
        "tra"
      ],
      [
        "look",
        "ed"
      ],
      [
        "fa",
        "me"
      ],
      [
        "fa",
        "ced"
      ],
      [
        "fa",
        "ult"
      ],
      [
        "fa",
        "ith"
      ],
      [
        "la",
        "id"
      ],
      [
        "la",
        "und"
      ],
      [
        "man",
        "age"
      ],
      [
        "let",
        "ters"
      ],
      [
        "sa",
        "vi"
      ],
      [
        "sa",
        "usage"
      ],
      [
        "wor",
        "st"
      ],
      [
        "wor",
        "se"
      ],
      [
        "wor",
        "king"
      ],
      [
        "con",
        "vi"
      ],
      [
        "con",
        "cer"
      ],
      [
        "con",
        "cuss"
      ],
      [
        "con",
        "sid"
      ],
      [
        "con",
        "fid"
      ],
      [
        "ap",
        "prove"
      ],
      [
        "ap",
        "peared"
      ],
      [
        "sp",
        "read"
      ],
      [
        "sp",
        "ark"
      ],
      [
        "sp",
        "ires"
      ],
      [
        "whe",
        "el"
      ],
      [
        "ol",
        "ved"
      ],
      [
        "ide",
        "as"
      ],
      [
        "pre",
        "sent"
      ],
      [
        "pre",
        "sid"
      ],
      [
        "pre",
        "cise"
      ],
      [
        "per",
        "ate"
      ],
      [
        "per",
        "ish"
      ],
      [
        "per",
        "spe"
      ],
      [
        "ty",
        "r"
      ],
      [
        "back",
        "fi"
      ],
      [
        "back",
        "gr"
      ],
      [
        "fo",
        "cused"
      ],
      [
        "ag",
        "ne"
      ],
      [
        "could",
        "a"
      ],
      [
        "qu",
        "iz"
      ],
      [
        "mer",
        "ci"
      ],
      [
        "mer",
        "cy"
      ],
      [
        "mer",
        "cen"
      ],
      [
        "bi",
        "olo"
      ],
      [
        "bi",
        "kers"
      ],
      [
        "bi",
        "lity"
      ],
      [
        "other",
        "s"
      ],
      [
        "come",
        "s"
      ],
      [
        "int",
        "s"
      ],
      [
        "ard",
        "ize"
      ],
      [
        "com",
        "mend"
      ],
      [
        "min",
        "ors"
      ],
      [
        "min",
        "utes"
      ],
      [
        "vi",
        "l"
      ],
      [
        "vi",
        "leg"
      ],
      [
        "rom",
        "at"
      ],
      [
        "act",
        "ing"
      ],
      [
        "act",
        "ion"
      ],
      [
        "ask",
        "s"
      ],
      [
        "gon",
        "ad"
      ],
      [
        "mar",
        "in"
      ],
      [
        "mar",
        "ry"
      ],
      [
        "mar",
        "ia"
      ],
      [
        "mar",
        "ried"
      ],
      [
        "mar",
        "riag"
      ],
      [
        "ye",
        "lling"
      ],
      [
        "che",
        "n"
      ],
      [
        "che",
        "st"
      ],
      [
        "ick",
        "y"
      ],
      [
        "put",
        "ting"
      ],
      [
        "start",
        "ed"
      ],
      [
        "ru",
        "les"
      ],
      [
        "ru",
        "bbed"
      ],
      [
        "ru",
        "ining"
      ],
      [
        "ci",
        "l"
      ],
      [
        "die",
        "go"
      ],
      [
        "jo",
        "in"
      ],
      [
        "ser",
        "ial"
      ],
      [
        "ud",
        "es"
      ],
      [
        "mis",
        "takes"
      ],
      [
        "sho",
        "e"
      ],
      [
        "ul",
        "arly"
      ],
      [
        "off",
        "ic"
      ],
      [
        "fire",
        "man"
      ],
      [
        "under",
        "sex"
      ],
      [
        "af",
        "fect"
      ],
      [
        "dis",
        "play"
      ],
      [
        "dis",
        "appeared"
      ],
      [
        "speak",
        "ers"
      ],
      [
        "fore",
        "ver"
      ],
      [
        "listen",
        "ed"
      ],
      [
        "est",
        "eem"
      ],
      [
        "mon",
        "ica"
      ],
      [
        "mon",
        "keys"
      ],
      [
        "help",
        "ing"
      ],
      [
        "ort",
        "unity"
      ],
      [
        "dec",
        "ent"
      ],
      [
        "every",
        "where"
      ],
      [
        "wait",
        "in"
      ],
      [
        "dre",
        "am"
      ],
      [
        "dre",
        "amed"
      ],
      [
        "must",
        "a"
      ],
      [
        "sc",
        "ary"
      ],
      [
        "sc",
        "urvy"
      ],
      [
        "ac",
        "y"
      ],
      [
        "ac",
        "es"
      ],
      [
        "br",
        "atwur"
      ],
      [
        "bet",
        "ty"
      ],
      [
        "cl",
        "ass"
      ],
      [
        "run",
        "s"
      ],
      [
        "med",
        "al"
      ],
      [
        "med",
        "ia"
      ],
      [
        "nor",
        "th"
      ],
      [
        "cr",
        "isto"
      ],
      [
        "car",
        "ried"
      ],
      [
        "car",
        "ries"
      ],
      [
        "op",
        "ardize"
      ],
      [
        "pla",
        "que"
      ],
      [
        "sto",
        "res"
      ],
      [
        "ton",
        "ic"
      ],
      [
        "try",
        "ing"
      ],
      [
        "shit",
        "faced"
      ],
      [
        "big",
        "gest"
      ],
      [
        "tri",
        "cks"
      ],
      [
        "their",
        "s"
      ],
      [
        "stu",
        "dy"
      ],
      [
        "ute",
        "ly"
      ],
      [
        "cti",
        "c"
      ],
      [
        "ef",
        "its"
      ],
      [
        "ff",
        "ed"
      ],
      [
        "stay",
        "in"
      ],
      [
        "less",
        "ons"
      ],
      [
        "world",
        "s"
      ],
      [
        "pret",
        "tiest"
      ],
      [
        "dr",
        "in"
      ],
      [
        "dr",
        "ag"
      ],
      [
        "pay",
        "s"
      ],
      [
        "pay",
        "in"
      ],
      [
        "pay",
        "ment"
      ],
      [
        "iss",
        "ue"
      ],
      [
        "tru",
        "ly"
      ],
      [
        "ba",
        "th"
      ],
      [
        "ba",
        "st"
      ],
      [
        "ba",
        "be"
      ],
      [
        "cer",
        "tit"
      ],
      [
        "coun",
        "t"
      ],
      [
        "coun",
        "cil"
      ],
      [
        "em",
        "pty"
      ],
      [
        "ga",
        "stro"
      ],
      [
        "pu",
        "ll"
      ],
      [
        "pu",
        "lling"
      ],
      [
        "reme",
        "mbers"
      ],
      [
        "hear",
        "say"
      ],
      [
        "happ",
        "ening"
      ],
      [
        "book",
        "s"
      ],
      [
        "press",
        "ion"
      ],
      [
        "bro",
        "ke"
      ],
      [
        "bro",
        "ken"
      ],
      [
        "bro",
        "adway"
      ],
      [
        "cri",
        "be"
      ],
      [
        "fam",
        "ili"
      ],
      [
        "gl",
        "or"
      ],
      [
        "kind",
        "a"
      ],
      [
        "old",
        "er"
      ],
      [
        "swee",
        "theart"
      ],
      [
        "tu",
        "x"
      ],
      [
        "tu",
        "be"
      ],
      [
        "tu",
        "tor"
      ],
      [
        "tu",
        "mesc"
      ],
      [
        "veron",
        "ica"
      ],
      [
        "bab",
        "y"
      ],
      [
        "bab",
        "ble"
      ],
      [
        "blo",
        "wn"
      ],
      [
        "blo",
        "ody"
      ],
      [
        "burn",
        "side"
      ],
      [
        "ev",
        "al"
      ],
      [
        "ev",
        "ents"
      ],
      [
        "res",
        "sed"
      ],
      [
        "res",
        "pect"
      ],
      [
        "sex",
        "y"
      ],
      [
        "quest",
        "ions"
      ],
      [
        "decis",
        "ion"
      ],
      [
        "interest",
        "s"
      ],
      [
        "interest",
        "ing"
      ],
      [
        "sleep",
        "ing"
      ],
      [
        "thousand",
        "s"
      ],
      [
        "da",
        "zz"
      ],
      [
        "fir",
        "m"
      ],
      [
        "je",
        "w"
      ],
      [
        "je",
        "alous"
      ],
      [
        "je",
        "opardize"
      ],
      [
        "jud",
        "ge"
      ],
      [
        "vor",
        "ced"
      ],
      [
        "real",
        "ize"
      ],
      [
        "les",
        "bian"
      ],
      [
        "main",
        "tain"
      ],
      [
        "main",
        "line"
      ],
      [
        "cu",
        "ffed"
      ],
      [
        "cha",
        "pin"
      ],
      [
        "cha",
        "mp"
      ],
      [
        "clo",
        "ck"
      ],
      [
        "di",
        "ed"
      ],
      [
        "di",
        "vorced"
      ],
      [
        "fun",
        "ny"
      ],
      [
        "hat",
        "es"
      ],
      [
        "hat",
        "red"
      ],
      [
        "har",
        "m"
      ],
      [
        "har",
        "boring"
      ],
      [
        "oper",
        "ation"
      ],
      [
        "ps",
        "ycho"
      ],
      [
        "incl",
        "ination"
      ],
      [
        "soon",
        "er"
      ],
      [
        "alon",
        "g"
      ],
      [
        "tic",
        "ularly"
      ],
      [
        "posit",
        "ions"
      ],
      [
        "maj",
        "or"
      ],
      [
        "patron",
        "ize"
      ],
      [
        "plan",
        "ning"
      ],
      [
        "different",
        "ly"
      ],
      [
        "bre",
        "ed"
      ],
      [
        "fle",
        "d"
      ],
      [
        "fight",
        "ing"
      ],
      [
        "kick",
        "ing"
      ],
      [
        "kick",
        "ed"
      ],
      [
        "lun",
        "g"
      ],
      [
        "pri",
        "vileg"
      ],
      [
        "pick",
        "s"
      ],
      [
        "full",
        "y"
      ],
      [
        "miss",
        "ion"
      ],
      [
        "discuss",
        "ion"
      ],
      [
        "scre",
        "wboy"
      ],
      [
        "opin",
        "ions"
      ],
      [
        "judg",
        "ed"
      ],
      [
        "des",
        "perate"
      ],
      [
        "des",
        "cribe"
      ],
      [
        "dam",
        "age"
      ],
      [
        "fin",
        "ished"
      ],
      [
        "free",
        "ze"
      ],
      [
        "gi",
        "ven"
      ],
      [
        "par",
        "ticularly"
      ],
      [
        "wr",
        "ite"
      ],
      [
        "wr",
        "iting"
      ],
      [
        "return",
        "ed"
      ],
      [
        "cover",
        "age"
      ],
      [
        "pos",
        "sessions"
      ],
      [
        "most",
        "ly"
      ],
      [
        "exp",
        "lore"
      ],
      [
        "grand",
        "mothers"
      ],
      [
        "fresh",
        "men"
      ],
      [
        "europe",
        "an"
      ],
      [
        "picture",
        "s"
      ],
      [
        "unfortunate",
        "ly"
      ],
      [
        "experi",
        "ence"
      ],
      [
        "brief",
        "s"
      ],
      [
        "brief",
        "ed"
      ],
      [
        "cred",
        "it"
      ],
      [
        "den",
        "y"
      ],
      [
        "draw",
        "ing"
      ],
      [
        "draw",
        "ers"
      ],
      [
        "drug",
        "s"
      ],
      [
        "ell",
        "a"
      ],
      [
        "ell",
        "i"
      ],
      [
        "hu",
        "ge"
      ],
      [
        "hu",
        "man"
      ],
      [
        "hand",
        "cuffed"
      ],
      [
        "kiss",
        "ing"
      ],
      [
        "mand",
        "ella"
      ],
      [
        "mid",
        "ate"
      ],
      [
        "mid",
        "dle"
      ],
      [
        "vic",
        "eroy"
      ],
      [
        "vic",
        "tims"
      ],
      [
        "reas",
        "on"
      ],
      [
        "reas",
        "ons"
      ],
      [
        "amer",
        "ican"
      ],
      [
        "tra",
        "velling"
      ],
      [
        "feel",
        "ing"
      ],
      [
        "express",
        "ing"
      ],
      [
        "express",
        "ion"
      ],
      [
        "intend",
        "s"
      ],
      [
        "intend",
        "ed"
      ],
      [
        "diff",
        "er"
      ],
      [
        "intestin",
        "al"
      ],
      [
        "intestin",
        "es"
      ],
      [
        "includ",
        "ing"
      ],
      [
        "includ",
        "ed"
      ],
      [
        "suggest",
        "s"
      ],
      [
        "ban",
        "k"
      ],
      [
        "bon",
        "us"
      ],
      [
        "dil",
        "uted"
      ],
      [
        "eight",
        "een"
      ],
      [
        "kor",
        "fin"
      ],
      [
        "mut",
        "iny"
      ],
      [
        "pal",
        "aces"
      ],
      [
        "pie",
        "ce"
      ],
      [
        "pra",
        "ctic"
      ],
      [
        "sig",
        "ned"
      ],
      [
        "spect",
        "ator"
      ],
      [
        "inv",
        "olved"
      ],
      [
        "retri",
        "eval"
      ],
      [
        "stab",
        "bed"
      ],
      [
        "stri",
        "ctly"
      ],
      [
        "docu",
        "ments"
      ],
      [
        "myst",
        "ery"
      ],
      [
        "roof",
        "s"
      ],
      [
        "negoti",
        "ate"
      ],
      [
        "abo",
        "ve"
      ],
      [
        "absol",
        "utely"
      ],
      [
        "terror",
        "ist"
      ],
      [
        "moti",
        "ve"
      ],
      [
        "ama",
        "zing"
      ],
      [
        "ambit",
        "ious"
      ],
      [
        "sper",
        "m"
      ],
      [
        "spit",
        "ting"
      ],
      [
        "quad",
        "rant"
      ],
      [
        "quick",
        "ly"
      ],
      [
        "comp",
        "ared"
      ],
      [
        "ruth",
        "less"
      ],
      [
        "elbo",
        "w"
      ],
      [
        "carry",
        "ing"
      ],
      [
        "pair",
        "s"
      ],
      [
        "micro",
        "phone"
      ],
      [
        "barre",
        "ls"
      ],
      [
        "bargain",
        "ing"
      ],
      [
        "experien",
        "ces"
      ],
      [
        "attempt",
        "ing"
      ],
      [
        "accomplish",
        "ment"
      ],
      [
        "ben",
        "efits"
      ],
      [
        "bun",
        "dy"
      ],
      [
        "bir",
        "th"
      ],
      [
        "blon",
        "de"
      ],
      [
        "cof",
        "fee"
      ],
      [
        "cour",
        "se"
      ],
      [
        "drun",
        "k"
      ],
      [
        "ele",
        "ven"
      ],
      [
        "eter",
        "nity"
      ],
      [
        "emo",
        "tion"
      ],
      [
        "emer",
        "gency"
      ],
      [
        "fli",
        "p"
      ],
      [
        "fall",
        "acy"
      ],
      [
        "fif",
        "ty"
      ],
      [
        "fright",
        "ening"
      ],
      [
        "fol",
        "ks"
      ],
      [
        "frid",
        "ay"
      ],
      [
        "fern",
        "ando"
      ],
      [
        "gim",
        "me"
      ],
      [
        "gent",
        "leman"
      ],
      [
        "gag",
        "ging"
      ],
      [
        "hou",
        "se"
      ],
      [
        "hid",
        "ing"
      ],
      [
        "hun",
        "gary"
      ],
      [
        "hide",
        "ous"
      ],
      [
        "hmm",
        "mm"
      ],
      [
        "hum",
        "ili"
      ],
      [
        "jor",
        "dy"
      ],
      [
        "km",
        "art"
      ],
      [
        "kit",
        "chen"
      ],
      [
        "kne",
        "es"
      ],
      [
        "lan",
        "guage"
      ],
      [
        "ost",
        "ene"
      ],
      [
        "opp",
        "ortunity"
      ],
      [
        "occ",
        "up"
      ],
      [
        "pon",
        "ies"
      ],
      [
        "pto",
        "lemeus"
      ],
      [
        "pad",
        "ua"
      ],
      [
        "pir",
        "ate"
      ],
      [
        "pron",
        "unci"
      ],
      [
        "rand",
        "om"
      ],
      [
        "rare",
        "ly"
      ],
      [
        "rus",
        "h"
      ],
      [
        "sme",
        "ll"
      ],
      [
        "sim",
        "ply"
      ],
      [
        "smo",
        "ke"
      ],
      [
        "sma",
        "ck"
      ],
      [
        "swo",
        "re"
      ],
      [
        "sud",
        "den"
      ],
      [
        "slight",
        "ly"
      ],
      [
        "tw",
        "ist"
      ],
      [
        "tend",
        "enci"
      ],
      [
        "voy",
        "age"
      ],
      [
        "wrest",
        "ler"
      ],
      [
        "thri",
        "ves"
      ],
      [
        "inst",
        "ru"
      ],
      [
        "inti",
        "midate"
      ],
      [
        "insan",
        "e"
      ],
      [
        "incred",
        "ibly"
      ],
      [
        "repe",
        "at"
      ],
      [
        "reput",
        "ation"
      ],
      [
        "repla",
        "ced"
      ],
      [
        "recent",
        "ly"
      ],
      [
        "anch",
        "or"
      ],
      [
        "erath",
        "ostene"
      ],
      [
        "toscan",
        "elli"
      ],
      [
        "stun",
        "ning"
      ],
      [
        "stra",
        "ight"
      ],
      [
        "step",
        "pin"
      ],
      [
        "orde",
        "red"
      ],
      [
        "engl",
        "ish"
      ],
      [
        "sever",
        "ity"
      ],
      [
        "seam",
        "an"
      ],
      [
        "seiz",
        "ure"
      ],
      [
        "beli",
        "ever"
      ],
      [
        "besid",
        "es"
      ],
      [
        "aristo",
        "tle"
      ],
      [
        "artic",
        "les"
      ],
      [
        "assure",
        "d"
      ],
      [
        "whatso",
        "ever"
      ],
      [
        "alcat",
        "raz"
      ],
      [
        "hack",
        "ing"
      ],
      [
        "ignor",
        "ance"
      ],
      [
        "hote",
        "l"
      ],
      [
        "holid",
        "ay"
      ],
      [
        "outnum",
        "bered"
      ],
      [
        "utap",
        "an"
      ],
      [
        "roman",
        "ia"
      ],
      [
        "unsol",
        "ved"
      ],
      [
        "uncross",
        "able"
      ],
      [
        "cooper",
        "ate"
      ],
      [
        "collea",
        "gues"
      ],
      [
        "tequ",
        "ila"
      ],
      [
        "celebr",
        "ity"
      ],
      [
        "butthol",
        "us"
      ],
      [
        "upbring",
        "ing"
      ],
      [
        "immed",
        "iate"
      ],
      [
        "poss",
        "i"
      ],
      [
        "depart",
        "ment"
      ],
      [
        "deput",
        "y"
      ],
      [
        "degr",
        "aded"
      ],
      [
        "depri",
        "ved"
      ],
      [
        "pegg",
        "ed"
      ],
      [
        "tamin",
        "a"
      ],
      [
        "protect",
        "ing"
      ],
      [
        "trag",
        "edy"
      ],
      [
        "maga",
        "zine"
      ],
      [
        "felon",
        "s"
      ],
      [
        "excl",
        "usivity"
      ],
      [
        "extre",
        "mus"
      ],
      [
        "laund",
        "romat"
      ],
      [
        "savi",
        "or"
      ],
      [
        "convi",
        "cted"
      ],
      [
        "concer",
        "n"
      ],
      [
        "concuss",
        "ion"
      ],
      [
        "consid",
        "er"
      ],
      [
        "confid",
        "ential"
      ],
      [
        "spark",
        "y"
      ],
      [
        "presid",
        "ent"
      ],
      [
        "precise",
        "ly"
      ],
      [
        "perspe",
        "ctive"
      ],
      [
        "backfi",
        "red"
      ],
      [
        "backgr",
        "ound"
      ],
      [
        "merci",
        "less"
      ],
      [
        "biolo",
        "gy"
      ],
      [
        "marriag",
        "es"
      ],
      [
        "undersex",
        "ed"
      ],
      [
        "affect",
        "ion"
      ],
      [
        "bratwur",
        "st"
      ],
      [
        "cristo",
        "bal"
      ],
      [
        "certit",
        "udes"
      ],
      [
        "famili",
        "ar"
      ],
      [
        "tumesc",
        "ent"
      ],
      [
        "dazz",
        "le"
      ],
      [
        "champ",
        "agne"
      ],
      [
        "psycho",
        "tic"
      ],
      [
        "privileg",
        "es"
      ],
      [
        "american",
        "s"
      ],
      [
        "amazing",
        "ly"
      ],
      [
        "pronunci",
        "ation"
      ],
      [
        "tendenci",
        "es"
      ],
      [
        "'",
        "?"
      ],
      [
        "0",
        "210"
      ],
      [
        "1",
        "5"
      ],
      [
        "2",
        "0"
      ],
      [
        "2",
        "2"
      ],
      [
        "4",
        "5"
      ],
      [
        "9",
        "0210"
      ],
      [
        "a",
        "i"
      ],
      [
        "a",
        "w"
      ],
      [
        "a",
        "st"
      ],
      [
        "a",
        "thing"
      ],
      [
        "a",
        "und"
      ],
      [
        "a",
        "cher"
      ],
      [
        "a",
        "ched"
      ],
      [
        "b",
        "b"
      ],
      [
        "b",
        "at"
      ],
      [
        "b",
        "er"
      ],
      [
        "b",
        "id"
      ],
      [
        "b",
        "out"
      ],
      [
        "b",
        "right"
      ],
      [
        "b",
        "ie"
      ],
      [
        "b",
        "ur"
      ],
      [
        "b",
        "ru"
      ],
      [
        "b",
        "ound"
      ],
      [
        "b",
        "lea"
      ],
      [
        "b",
        "ination"
      ],
      [
        "b",
        "ought"
      ],
      [
        "c",
        "in"
      ],
      [
        "c",
        "to"
      ],
      [
        "c",
        "be"
      ],
      [
        "c",
        "un"
      ],
      [
        "c",
        "ir"
      ],
      [
        "c",
        "how"
      ],
      [
        "c",
        "ie"
      ],
      [
        "c",
        "ard"
      ],
      [
        "c",
        "ess"
      ],
      [
        "c",
        "ity"
      ],
      [
        "c",
        "ute"
      ],
      [
        "c",
        "um"
      ],
      [
        "d",
        "ig"
      ],
      [
        "d",
        "are"
      ],
      [
        "d",
        "ea"
      ],
      [
        "d",
        "ri"
      ],
      [
        "d",
        "ous"
      ],
      [
        "d",
        "ist"
      ],
      [
        "d",
        "ick"
      ],
      [
        "d",
        "ak"
      ],
      [
        "d",
        "ict"
      ],
      [
        "d",
        "ue"
      ],
      [
        "d",
        "uring"
      ],
      [
        "e",
        "g"
      ],
      [
        "e",
        "th"
      ],
      [
        "e",
        "at"
      ],
      [
        "e",
        "ved"
      ],
      [
        "e",
        "cut"
      ],
      [
        "e",
        "ks"
      ],
      [
        "e",
        "vil"
      ],
      [
        "e",
        "ber"
      ],
      [
        "f",
        "ou"
      ],
      [
        "f",
        "er"
      ],
      [
        "f",
        "is"
      ],
      [
        "f",
        "it"
      ],
      [
        "f",
        "en"
      ],
      [
        "f",
        "ed"
      ],
      [
        "f",
        "lo"
      ],
      [
        "f",
        "ill"
      ],
      [
        "f",
        "od"
      ],
      [
        "f",
        "ure"
      ],
      [
        "f",
        "low"
      ],
      [
        "f",
        "rat"
      ],
      [
        "f",
        "alls"
      ],
      [
        "f",
        "ought"
      ],
      [
        "g",
        "n"
      ],
      [
        "g",
        "ri"
      ],
      [
        "g",
        "ist"
      ],
      [
        "g",
        "ia"
      ],
      [
        "g",
        "ional"
      ],
      [
        "g",
        "rief"
      ],
      [
        "g",
        "room"
      ],
      [
        "g",
        "ressed"
      ],
      [
        "h",
        "or"
      ],
      [
        "h",
        "ind"
      ],
      [
        "h",
        "ours"
      ],
      [
        "i",
        "o"
      ],
      [
        "i",
        "p"
      ],
      [
        "i",
        "re"
      ],
      [
        "i",
        "ed"
      ],
      [
        "i",
        "co"
      ],
      [
        "i",
        "ally"
      ],
      [
        "i",
        "les"
      ],
      [
        "i",
        "form"
      ],
      [
        "j",
        "ury"
      ],
      [
        "k",
        "n"
      ],
      [
        "k",
        "y"
      ],
      [
        "l",
        "ing"
      ],
      [
        "l",
        "or"
      ],
      [
        "l",
        "as"
      ],
      [
        "l",
        "ad"
      ],
      [
        "m",
        "my"
      ],
      [
        "m",
        "ate"
      ],
      [
        "m",
        "ur"
      ],
      [
        "m",
        "il"
      ],
      [
        "m",
        "ning"
      ],
      [
        "m",
        "outh"
      ],
      [
        "m",
        "bered"
      ],
      [
        "m",
        "iles"
      ],
      [
        "n",
        "g"
      ],
      [
        "n",
        "atur"
      ],
      [
        "n",
        "icky"
      ],
      [
        "n",
        "ico"
      ],
      [
[...]
